{
  "version": "1.0",
  "truncation": null,
  "padding": null,
  "added_tokens": [
    {
      "id": 0,
      "content": "<unk>",
      "single_word": false,
      "lstrip": false,
      "rstrip": false,
      "normalized": false,
      "special": true
    },
    {
      "id": 1,
      "content": "<s>",
      "single_word": false,
      "lstrip": false,
      "rstrip": false,
      "normalized": false,
      "special": true
    },
    {
      "id": 2,
      "content": "</s>",
      "single_word": false,
      "lstrip": false,
      "rstrip": false,
      "normalized": false,
      "special": true
    },
    {
      "id": 3,
      "content": "<pad>",
      "single_word": false,
      "lstrip": false,
      "rstrip": false,
      "normalized": false,
      "special": true
    },
    {
      "id": 4,
      "content": "<sep>",
      "single_word": false,
      "lstrip": false,
      "rstrip": false,
      "normalized": false,
      "special": true
    },
    {
      "id": 5,
      "content": "<mask>",
      "single_word": false,
      "lstrip": false,
      "rstrip": false,
      "normalized": false,
      "special": true
    },
    {
      "id": 6,
      "content": "<cls>",
      "single_word": false,
      "lstrip": false,
      "rstrip": false,
      "normalized": false,
      "special": true
    },
    {
      "id": 7,
      "content": "<|system|>",
      "single_word": false,
      "lstrip": false,
      "rstrip": false,
      "normalized": false,
      "special": false
    },
    {
      "id": 8,
      "content": "<|assistant|>",
      "single_word": false,
      "lstrip": false,
      "rstrip": false,
      "normalized": false,
      "special": false
    },
    {
      "id": 9,
      "content": "<|user|>",
      "single_word": false,
      "lstrip": false,
      "rstrip": false,
      "normalized": false,
      "special": false
    },
    {
      "id": 10,
      "content": "<|available_tools|>",
      "single_word": false,
      "lstrip": false,
      "rstrip": false,
      "normalized": false,
      "special": false
    },
    {
      "id": 11,
      "content": "<|tool_calls|>",
      "single_word": false,
      "lstrip": false,
      "rstrip": false,
      "normalized": false,
      "special": false
    },
    {
      "id": 12,
      "content": "<|tool_results|>",
      "single_word": false,
      "lstrip": false,
      "rstrip": false,
      "normalized": false,
      "special": false
    },
    {
      "id": 13,
      "content": "<|code|>",
      "single_word": false,
      "lstrip": false,
      "rstrip": false,
      "normalized": false,
      "special": false
    },
    {
      "id": 14,
      "content": "<|file|>",
      "single_word": false,
      "lstrip": false,
      "rstrip": false,
      "normalized": false,
      "special": false
    },
    {
      "id": 102397,
      "content": "<|prefix|>",
      "single_word": false,
      "lstrip": false,
      "rstrip": false,
      "normalized": false,
      "special": false
    },
    {
      "id": 102398,
      "content": "<|suffix|>",
      "single_word": false,
      "lstrip": false,
      "rstrip": false,
      "normalized": false,
      "special": false
    },
    {
      "id": 102399,
      "content": "<|middle|>",
      "single_word": false,
      "lstrip": false,
      "rstrip": false,
      "normalized": false,
      "special": false
    }
  ],
  "normalizer": null,
  "pre_tokenizer": {
    "type": "Metaspace",
    "replacement": "▁",
    "prepend_scheme": "never",
    "split": false
  },
  "post_processor": {
    "type": "TemplateProcessing",
    "single": [
      {
        "Sequence": {
          "id": "A",
          "type_id": 0
        }
      }
    ],
    "pair": [
      {
        "Sequence": {
          "id": "A",
          "type_id": 0
        }
      },
      {
        "Sequence": {
          "id": "B",
          "type_id": 1
        }
      }
    ],
    "special_tokens": {}
  },
  "decoder": {
    "type": "Sequence",
    "decoders": [
      {
        "type": "Replace",
        "pattern": {
          "String": "▁"
        },
        "content": " "
      },
      {
        "type": "ByteFallback"
      },
      {
        "type": "Fuse"
      }
    ]
  },
  "model": {
    "type": "BPE",
    "dropout": null,
    "unk_token": null,
    "continuing_subword_prefix": null,
    "end_of_word_suffix": null,
    "fuse_unk": true,
    "byte_fallback": true,
    "ignore_merges": false,
    "vocab": {
      "<unk>": 0,
      "<s>": 1,
      "</s>": 2,
      "<pad>": 3,
      "<sep>": 4,
      "<mask>": 5,
      "<cls>": 6,
      "<|system|>": 7,
      "<|assistant|>": 8,
      "<|user|>": 9,
      "<|available_tools|>": 10,
      "<|tool_calls|>": 11,
      "<|tool_results|>": 12,
      "<|code|>": 13,
      "<|file|>": 14,
      "<0x00>": 15,
      "<0x01>": 16,
      "<0x02>": 17,
      "<0x03>": 18,
      "<0x04>": 19,
      "<0x05>": 20,
      "<0x06>": 21,
      "<0x07>": 22,
      "<0x08>": 23,
      "<0x09>": 24,
      "<0x0A>": 25,
      "<0x0B>": 26,
      "<0x0C>": 27,
      "<0x0D>": 28,
      "<0x0E>": 29,
      "<0x0F>": 30,
      "<0x10>": 31,
      "<0x11>": 32,
      "<0x12>": 33,
      "<0x13>": 34,
      "<0x14>": 35,
      "<0x15>": 36,
      "<0x16>": 37,
      "<0x17>": 38,
      "<0x18>": 39,
      "<0x19>": 40,
      "<0x1A>": 41,
      "<0x1B>": 42,
      "<0x1C>": 43,
      "<0x1D>": 44,
      "<0x1E>": 45,
      "<0x1F>": 46,
      "<0x20>": 47,
      "<0x21>": 48,
      "<0x22>": 49,
      "<0x23>": 50,
      "<0x24>": 51,
      "<0x25>": 52,
      "<0x26>": 53,
      "<0x27>": 54,
      "<0x28>": 55,
      "<0x29>": 56,
      "<0x2A>": 57,
      "<0x2B>": 58,
      "<0x2C>": 59,
      "<0x2D>": 60,
      "<0x2E>": 61,
      "<0x2F>": 62,
      "<0x30>": 63,
      "<0x31>": 64,
      "<0x32>": 65,
      "<0x33>": 66,
      "<0x34>": 67,
      "<0x35>": 68,
      "<0x36>": 69,
      "<0x37>": 70,
      "<0x38>": 71,
      "<0x39>": 72,
      "<0x3A>": 73,
      "<0x3B>": 74,
      "<0x3C>": 75,
      "<0x3D>": 76,
      "<0x3E>": 77,
      "<0x3F>": 78,
      "<0x40>": 79,
      "<0x41>": 80,
      "<0x42>": 81,
      "<0x43>": 82,
      "<0x44>": 83,
      "<0x45>": 84,
      "<0x46>": 85,
      "<0x47>": 86,
      "<0x48>": 87,
      "<0x49>": 88,
      "<0x4A>": 89,
      "<0x4B>": 90,
      "<0x4C>": 91,
      "<0x4D>": 92,
      "<0x4E>": 93,
      "<0x4F>": 94,
      "<0x50>": 95,
      "<0x51>": 96,
      "<0x52>": 97,
      "<0x53>": 98,
      "<0x54>": 99,
      "<0x55>": 100,
      "<0x56>": 101,
      "<0x57>": 102,
      "<0x58>": 103,
      "<0x59>": 104,
      "<0x5A>": 105,
      "<0x5B>": 106,
      "<0x5C>": 107,
      "<0x5D>": 108,
      "<0x5E>": 109,
      "<0x5F>": 110,
      "<0x60>": 111,
      "<0x61>": 112,
      "<0x62>": 113,
      "<0x63>": 114,
      "<0x64>": 115,
      "<0x65>": 116,
      "<0x66>": 117,
      "<0x67>": 118,
      "<0x68>": 119,
      "<0x69>": 120,
      "<0x6A>": 121,
      "<0x6B>": 122,
      "<0x6C>": 123,
      "<0x6D>": 124,
      "<0x6E>": 125,
      "<0x6F>": 126,
      "<0x70>": 127,
      "<0x71>": 128,
      "<0x72>": 129,
      "<0x73>": 130,
      "<0x74>": 131,
      "<0x75>": 132,
      "<0x76>": 133,
      "<0x77>": 134,
      "<0x78>": 135,
      "<0x79>": 136,
      "<0x7A>": 137,
      "<0x7B>": 138,
      "<0x7C>": 139,
      "<0x7D>": 140,
      "<0x7E>": 141,
      "<0x7F>": 142,
      "<0x80>": 143,
      "<0x81>": 144,
      "<0x82>": 145,
      "<0x83>": 146,
      "<0x84>": 147,
      "<0x85>": 148,
      "<0x86>": 149,
      "<0x87>": 150,
      "<0x88>": 151,
      "<0x89>": 152,
      "<0x8A>": 153,
      "<0x8B>": 154,
      "<0x8C>": 155,
      "<0x8D>": 156,
      "<0x8E>": 157,
      "<0x8F>": 158,
      "<0x90>": 159,
      "<0x91>": 160,
      "<0x92>": 161,
      "<0x93>": 162,
      "<0x94>": 163,
      "<0x95>": 164,
      "<0x96>": 165,
      "<0x97>": 166,
      "<0x98>": 167,
      "<0x99>": 168,
      "<0x9A>": 169,
      "<0x9B>": 170,
      "<0x9C>": 171,
      "<0x9D>": 172,
      "<0x9E>": 173,
      "<0x9F>": 174,
      "<0xA0>": 175,
      "<0xA1>": 176,
      "<0xA2>": 177,
      "<0xA3>": 178,
      "<0xA4>": 179,
      "<0xA5>": 180,
      "<0xA6>": 181,
      "<0xA7>": 182,
      "<0xA8>": 183,
      "<0xA9>": 184,
      "<0xAA>": 185,
      "<0xAB>": 186,
      "<0xAC>": 187,
      "<0xAD>": 188,
      "<0xAE>": 189,
      "<0xAF>": 190,
      "<0xB0>": 191,
      "<0xB1>": 192,
      "<0xB2>": 193,
      "<0xB3>": 194,
      "<0xB4>": 195,
      "<0xB5>": 196,
      "<0xB6>": 197,
      "<0xB7>": 198,
      "<0xB8>": 199,
      "<0xB9>": 200,
      "<0xBA>": 201,
      "<0xBB>": 202,
      "<0xBC>": 203,
      "<0xBD>": 204,
      "<0xBE>": 205,
      "<0xBF>": 206,
      "<0xC0>": 207,
      "<0xC1>": 208,
      "<0xC2>": 209,
      "<0xC3>": 210,
      "<0xC4>": 211,
      "<0xC5>": 212,
      "<0xC6>": 213,
      "<0xC7>": 214,
      "<0xC8>": 215,
      "<0xC9>": 216,
      "<0xCA>": 217,
      "<0xCB>": 218,
      "<0xCC>": 219,
      "<0xCD>": 220,
      "<0xCE>": 221,
      "<0xCF>": 222,
      "<0xD0>": 223,
      "<0xD1>": 224,
      "<0xD2>": 225,
      "<0xD3>": 226,
      "<0xD4>": 227,
      "<0xD5>": 228,
      "<0xD6>": 229,
      "<0xD7>": 230,
      "<0xD8>": 231,
      "<0xD9>": 232,
      "<0xDA>": 233,
      "<0xDB>": 234,
      "<0xDC>": 235,
      "<0xDD>": 236,
      "<0xDE>": 237,
      "<0xDF>": 238,
      "<0xE0>": 239,
      "<0xE1>": 240,
      "<0xE2>": 241,
      "<0xE3>": 242,
      "<0xE4>": 243,
      "<0xE5>": 244,
      "<0xE6>": 245,
      "<0xE7>": 246,
      "<0xE8>": 247,
      "<0xE9>": 248,
      "<0xEA>": 249,
      "<0xEB>": 250,
      "<0xEC>": 251,
      "<0xED>": 252,
      "<0xEE>": 253,
      "<0xEF>": 254,
      "<0xF0>": 255,
      "<0xF1>": 256,
      "<0xF2>": 257,
      "<0xF3>": 258,
      "<0xF4>": 259,
      "<0xF5>": 260,
      "<0xF6>": 261,
      "<0xF7>": 262,
      "<0xF8>": 263,
      "<0xF9>": 264,
      "<0xFA>": 265,
      "<0xFB>": 266,
      "<0xFC>": 267,
      "<0xFD>": 268,
      "<0xFE>": 269,
      "<0xFF>": 270,
      "▁": 271,
      ".": 272,
      ",": 273,
      "0": 274,
      "、": 275,
      "▁the": 276,
      "1": 277,
      "。": 278,
      "2": 279,
      "s": 280,
      "▁of": 281,
      "▁and": 282,
      "▁to": 283,
      "-": 284,
      "▁a": 285,
      "▁in": 286,
      ":": 287,
      "'": 288,
      "3": 289,
      "_": 290,
      "の": 291,
      "5": 292,
      ")": 293,
      "4": 294,
      "▁▁▁▁▁▁▁▁": 295,
      "/": 296,
      "(": 297,
      "9": 298,
      "6": 299,
      "8": 300,
      "▁is": 301,
      "は": 302,
      "7": 303,
      "ing": 304,
      "▁for": 305,
      "が": 306,
      "▁that": 307,
      "▁▁▁▁": 308,
      "ed": 309,
      "▁(": 310,
      "で": 311,
      "・": 312,
      "「": 313,
      "\"": 314,
      "を": 315,
      "」": 316,
      "と": 317,
      "▁with": 318,
      "▁on": 319,
      "に": 320,
      "（": 321,
      ";": 322,
      "The": 323,
      "t": 324,
      "▁it": 325,
      "▁as": 326,
      "）": 327,
      "！": 328,
      "▁be": 329,
      "}": 330,
      "▁you": 331,
      "　": 332,
      "▁=": 333,
      "▁are": 334,
      "▁I": 335,
      "▁was": 336,
      "ion": 337,
      "▁\"": 338,
      "▁by": 339,
      "▁at": 340,
      ">": 341,
      "▁from": 342,
      "も": 343,
      "▁this": 344,
      "や": 345,
      "tion": 346,
      "e": 347,
      "▁or": 348,
      "▁have": 349,
      "\\": 350,
      "a": 351,
      "{": 352,
      "▁an": 353,
      "I": 354,
      "です": 355,
      "A": 356,
      "ment": 357,
      "▁not": 358,
      "：": 359,
      "er": 360,
      "es": 361,
      "から": 362,
      "▁can": 363,
      "▁will": 364,
      "▁{": 365,
      "<": 366,
      "▁has": 367,
      "？": 368,
      "?": 369,
      "ly": 370,
      "▁we": 371,
      "x": 372,
      "月": 373,
      "d": 374,
      "ation": 375,
      "[": 376,
      "▁your": 377,
      "al": 378,
      "]": 379,
      "日": 380,
      "m": 381,
      "i": 382,
      "年": 383,
      "▁all": 384,
      "▁but": 385,
      "▁$": 386,
      "S": 387,
      "▁his": 388,
      "▁he": 389,
      "▁their": 390,
      "】": 391,
      "▁they": 392,
      "!": 393,
      "▁which": 394,
      "▁more": 395,
      "▁one": 396,
      ");": 397,
      "n": 398,
      "【": 399,
      "し": 400,
      "In": 401,
      "…": 402,
      "▁about": 403,
      "=\"": 404,
      "#": 405,
      "１": 406,
      "▁*": 407,
      "$": 408,
      "▁new": 409,
      "It": 410,
      "▁out": 411,
      "▁our": 412,
      "▁if": 413,
      "re": 414,
      "C": 415,
      "▁also": 416,
      "▁who": 417,
      "c": 418,
      "▁A": 419,
      "▁so": 420,
      "y": 421,
      "▁were": 422,
      "▁up": 423,
      "▁time": 424,
      "▁been": 425,
      "ent": 426,
      "%": 427,
      "=": 428,
      "ity": 429,
      "p": 430,
      "する": 431,
      "in": 432,
      "な": 433,
      "▁my": 434,
      "This": 435,
      "▁other": 436,
      "▁had": 437,
      "ers": 438,
      "▁do": 439,
      "▁\\": 440,
      "</": 441,
      "▁de": 442,
      "com": 443,
      "この": 444,
      "▁when": 445,
      "...": 446,
      "▁would": 447,
      "▁like": 448,
      "▁her": 449,
      "２": 450,
      "▁there": 451,
      "▁re": 452,
      "など": 453,
      "f": 454,
      "した": 455,
      "b": 456,
      "～": 457,
      "▁some": 458,
      "▁&": 459,
      "▁its": 460,
      "『": 461,
      "▁▁▁▁▁▁": 462,
      "』": 463,
      "D": 464,
      "▁what": 465,
      "o": 466,
      "では": 467,
      "r": 468,
      "▁into": 469,
      "We": 470,
      "には": 471,
      "して": 472,
      "B": 473,
      "://": 474,
      ").": 475,
      "▁get": 476,
      "か": 477,
      "という": 478,
      "でも": 479,
      "T": 480,
      "▁over": 481,
      "▁than": 482,
      "able": 483,
      "),": 484,
      "if": 485,
      "▁–": 486,
      "▁C": 487,
      "ます": 488,
      "０": 489,
      "▁first": 490,
      "or": 491,
      "▁|": 492,
      "▁said": 493,
      "\",": 494,
      "▁people": 495,
      "ions": 496,
      "▁them": 497,
      "▁no": 498,
      "//": 499,
      "▁S": 500,
      "その": 501,
      "▁any": 502,
      "▁just": 503,
      "▁The": 504,
      "g": 505,
      "▁[": 506,
      "()": 507,
      "▁me": 508,
      "ので": 509,
      "▁only": 510,
      "▁class": 511,
      "▁under": 512,
      "また": 513,
      "円": 514,
      "h": 515,
      "る": 516,
      "M": 517,
      "return": 518,
      "E": 519,
      "▁two": 520,
      "->": 521,
      "k": 522,
      "id": 523,
      "▁work": 524,
      "F": 525,
      "P": 526,
      "って": 527,
      "content": 528,
      ".\"": 529,
      "ence": 530,
      "▁how": 531,
      "として": 532,
      "+": 533,
      "▁▁▁▁▁▁▁": 534,
      "ウェブ": 535,
      "*": 536,
      "▁through": 537,
      "▁p": 538,
      "▁may": 539,
      "ive": 540,
      "▁use": 541,
      "▁part": 542,
      "tions": 543,
      "He": 544,
      "▁most": 545,
      "本文": 546,
      "th": 547,
      "▁she": 548,
      "▁these": 549,
      "',": 550,
      "▁i": 551,
      "Web": 552,
      "::": 553,
      "to": 554,
      "▁make": 555,
      "L": 556,
      "▁after": 557,
      "▁P": 558,
      "R": 559,
      "▁years": 560,
      "▁ID": 561,
      "▁well": 562,
      "３": 563,
      "▁c": 564,
      "(\"": 565,
      "▁M": 566,
      "人": 567,
      "get": 568,
      ",\"": 569,
      "▁#": 570,
      "▁know": 571,
      "|": 572,
      "て": 573,
      "▁where": 574,
      "▁back": 575,
      "v": 576,
      "た": 577,
      "If": 578,
      "▁such": 579,
      "function": 580,
      "▁then": 581,
      "▁<": 582,
      "さん": 583,
      "@": 584,
      "▁could": 585,
      "▁many": 586,
      "まで": 587,
      "▁year": 588,
      "▁way": 589,
      "▁very": 590,
      "▁should": 591,
      "on": 592,
      "▁now": 593,
      "▁+": 594,
      "&": 595,
      "G": 596,
      "N": 597,
      "分": 598,
      "、「": 599,
      "ally": 600,
      "▁us": 601,
      "\">": 602,
      "，": 603,
      "ve": 604,
      "について": 605,
      "▁even": 606,
      "l": 607,
      "”": 608,
      "en": 609,
      "u": 610,
      "▁data": 611,
      "▁because": 612,
      "ance": 613,
      "第": 614,
      "▁need": 615,
      "▁differ": 616,
      "K": 617,
      "▁see": 618,
      "ments": 619,
      "();": 620,
      "ました": 621,
      "▁B": 622,
      "You": 623,
      "But": 624,
      "します": 625,
      "import": 626,
      "ations": 627,
      "▁E": 628,
      "H": 629,
      "name": 630,
      "For": 631,
      "より": 632,
      "▁being": 633,
      "▁world": 634,
      "And": 635,
      "this": 636,
      "('": 637,
      "X": 638,
      "大": 639,
      "へ": 640,
      "▁much": 641,
      "▁him": 642,
      "▁used": 643,
      "te": 644,
      "▁those": 645,
      "▁made": 646,
      "お": 647,
      "▁develop": 648,
      "ional": 649,
      "▁before": 650,
      "▁good": 651,
      "▁set": 652,
      "▁@": 653,
      "is": 654,
      "end": 655,
      "▁e": 656,
      "▁support": 657,
      "j": 658,
      "div": 659,
      "public": 660,
      "ね": 661,
      "▁between": 662,
      "▁T": 663,
      "▁state": 664,
      "▁here": 665,
      "the": 666,
      "z": 667,
      "ですが": 668,
      "w": 669,
      "だ": 670,
      "〜": 671,
      "As": 672,
      "／": 673,
      "なら": 674,
      "—": 675,
      "▁don": 676,
      "そして": 677,
      "▁life": 678,
      "▁experi": 679,
      "https": 680,
      "▁take": 681,
      "▁each": 682,
      "よ": 683,
      "とか": 684,
      "である": 685,
      "本": 686,
      "V": 687,
      "▁want": 688,
      "中": 689,
      "▁help": 690,
      "時": 691,
      "▁name": 692,
      "▁New": 693,
      "▁think": 694,
      "ll": 695,
      "▁last": 696,
      "ities": 697,
      "水": 698,
      "▁while": 699,
      "There": 700,
      "▁right": 701,
      "▁same": 702,
      "にも": 703,
      "５": 704,
      "▁day": 705,
      "W": 706,
      "business": 707,
      "▁best": 708,
      "national": 709,
      "▁high": 710,
      "To": 711,
      "Q": 712,
      "▁=>": 713,
      "`": 714,
      "ies": 715,
      "and": 716,
      "なので": 717,
      "※": 718,
      "▁con": 719,
      "▁both": 720,
      "▁co": 721,
      "４": 722,
      "▁informa": 723,
      "▁go": 724,
      "\":": 725,
      "▁commun": 726,
      "--------": 727,
      "とは": 728,
      "▁number": 729,
      "▁un": 730,
      "▁long": 731,
      "している": 732,
      "ー": 733,
      "・・・": 734,
      "co": 735,
      "They": 736,
      "ary": 737,
      "▁still": 738,
      "▁using": 739,
      "data": 740,
      "回": 741,
      "ate": 742,
      "▁home": 743,
      "self": 744,
      "▁D": 745,
      "▁process": 746,
      "▁down": 747,
      "▁own": 748,
      "こと": 749,
      "J": 750,
      "でした": 751,
      "cluding": 752,
      "のは": 753,
      "▁around": 754,
      "▁find": 755,
      "り": 756,
      "▁public": 757,
      "▁L": 758,
      "▁three": 759,
      "×": 760,
      "▁great": 761,
      "▁U": 762,
      "▁every": 763,
      "▁found": 764,
      "▁R": 765,
      "▁follow": 766,
      "set": 767,
      "時間": 768,
      "▁G": 769,
      "Y": 770,
      "int": 771,
      "▁really": 772,
      "▁during": 773,
      "▁system": 774,
      "^": 775,
      "O": 776,
      "金": 777,
      "▁H": 778,
      "ology": 779,
      "▁did": 780,
      "▁$\\": 781,
      "li": 782,
      "用": 783,
      "▁place": 784,
      "▁off": 785,
      "▁end": 786,
      "U": 787,
      "www": 788,
      "▁going": 789,
      "Name": 790,
      "一": 791,
      "▁F": 792,
      "_{": 793,
      "var": 794,
      "▁value": 795,
      "しました": 796,
      "♪": 797,
      "ス": 798,
      "▁per": 799,
      "So": 800,
      "She": 801,
      "an": 802,
      "What": 803,
      "▁`": 804,
      "ship": 805,
      "▁In": 806,
      "▁d": 807,
      "▁*/": 808,
      "out": 809,
      "▁does": 810,
      "い": 811,
      "▁case": 812,
      "type": 813,
      "▁must": 814,
      "▁Univers": 815,
      "▁current": 816,
      "cm": 817,
      "▁perform": 818,
      "vailable": 819,
      "ID": 820,
      "ら": 821,
      "できる": 822,
      "しかし": 823,
      "された": 824,
      "木": 825,
      "日本": 826,
      "▁product": 827,
      "▁service": 828,
      "▁J": 829,
      "man": 830,
      "などの": 831,
      "による": 832,
      "When": 833,
      "▁govern": 834,
      "しています": 835,
      "▁team": 836,
      "▁too": 837,
      "▁am": 838,
      "ない": 839,
      "American": 840,
      "▁without": 841,
      "–": 842,
      "mm": 843,
      "▁since": 844,
      "ton": 845,
      "▁N": 846,
      "市": 847,
      "):": 848,
      "▁game": 849,
      "▁next": 850,
      "への": 851,
      "position": 852,
      "▁company": 853,
      "▁against": 854,
      "td": 855,
      "▁K": 856,
      "名": 857,
      "等": 858,
      "net": 859,
      "▁inter": 860,
      "▁—": 861,
      "▁look": 862,
      "▁W": 863,
      "情報": 864,
      "consider": 865,
      "▁another": 866,
      "▁==": 867,
      "question": 868,
      "Type": 869,
      "▁come": 870,
      "▁few": 871,
      "▁second": 872,
      "▁provide": 873,
      "span": 874,
      "ですね": 875,
      "That": 876,
      "▁family": 877,
      "▁things": 878,
      "▁show": 879,
      "新": 880,
      "＆": 881,
      "▁f": 882,
      "もの": 883,
      "▁project": 884,
      "▁techn": 885,
      "ant": 886,
      "▁true": 887,
      "▁program": 888,
      "ist": 889,
      "▁la": 890,
      "．": 891,
      "▁present": 892,
      "的": 893,
      "だった": 894,
      "笑": 895,
      "上": 896,
      "▁type": 897,
      "▁say": 898,
      "resident": 899,
      "research": 900,
      "text": 901,
      "q": 902,
      "▁always": 903,
      "Z": 904,
      "ian": 905,
      "▁order": 906,
      "▁better": 907,
      "▁someth": 908,
      "ated": 909,
      "On": 910,
      "▁change": 911,
      "interest": 912,
      "No": 913,
      "▁Re": 914,
      "String": 915,
      "店": 916,
      "▁trans": 917,
      "issue": 918,
      "org": 919,
      "▁free": 920,
      "▁return": 921,
      "With": 922,
      "▁little": 923,
      "子": 924,
      "約": 925,
      "▁market": 926,
      "山": 927,
      "],": 928,
      "http": 929,
      "By": 930,
      "６": 931,
      "▁result": 932,
      "▁local": 933,
      "私は": 934,
      "at": 935,
      "▁never": 936,
      "▁love": 937,
      "話": 938,
      "“": 939,
      "▁might": 940,
      "▁point": 941,
      "▁within": 942,
      "▁lot": 943,
      "All": 944,
      "children": 945,
      "になる": 946,
      "と思います": 947,
      "☆": 948,
      "><": 949,
      "▁start": 950,
      "▁group": 951,
      "▁self": 952,
      "))": 953,
      "▁water": 954,
      "土": 955,
      "がある": 956,
      "},": 957,
      "」「": 958,
      "▁access": 959,
      "\")": 960,
      "▁dis": 961,
      "▁school": 962,
      "username": 963,
      "のか": 964,
      "▁person": 965,
      "▁says": 966,
      "▁full": 967,
      "px": 968,
      "Data": 969,
      "町": 970,
      "{\\": 971,
      "ful": 972,
      "▁top": 973,
      "▁million": 974,
      "これは": 975,
      "▁health": 976,
      "▁book": 977,
      "for": 978,
      "今": 979,
      "▁non": 980,
      "no": 981,
      "ため": 982,
      "▁working": 983,
      "class": 984,
      "of": 985,
      "html": 986,
      "▁m": 987,
      "だけ": 988,
      "XXXX": 989,
      "＠": 990,
      "▁small": 991,
      "possible": 992,
      "▁design": 993,
      "方": 994,
      "const": 995,
      "●": 996,
      "つ": 997,
      "▁example": 998,
      "▁else": 999,
      "▁success": 1000,
      "％": 1001,
      "it": 1002,
      "けど": 1003,
      "▁file": 1004,
      "▁line": 1005,
      "Id": 1006,
      "At": 1007,
      "によって": 1008,
      "▁got": 1009,
      "▁power": 1010,
      "us": 1011,
      "document": 1012,
      "■": 1013,
      "▁country": 1014,
      "de": 1015,
      "７": 1016,
      "前": 1017,
      "駅": 1018,
      "自分の": 1019,
      "solution": 1020,
      "code": 1021,
      "そんな": 1022,
      "ア": 1023,
      "as": 1024,
      "▁charact": 1025,
      "▁days": 1026,
      "される": 1027,
      "さ": 1028,
      "▁list": 1029,
      "▁connect": 1030,
      "ある": 1031,
      "▁effect": 1032,
      "★": 1033,
      "▁require": 1034,
      "▁test": 1035,
      "['": 1036,
      "もう": 1037,
      "▁area": 1038,
      "▁again": 1039,
      "▁include": 1040,
      "８": 1041,
      "label": 1042,
      "サービス": 1043,
      "火": 1044,
      "string": 1045,
      "だから": 1046,
      "new": 1047,
      "▁real": 1048,
      "\");": 1049,
      "right": 1050,
      "ください": 1051,
      "があります": 1052,
      "by": 1053,
      "▁give": 1054,
      "ように": 1055,
      "小": 1056,
      "▁form": 1057,
      "く": 1058,
      "位": 1059,
      "size": 1060,
      "→": 1061,
      "▁en": 1062,
      "▁play": 1063,
      "▁special": 1064,
      "le": 1065,
      "▁create": 1066,
      "▁story": 1067,
      "▁control": 1068,
      "▁open": 1069,
      "型": 1070,
      "▁--": 1071,
      "begin": 1072,
      "▁put": 1073,
      "}\\": 1074,
      "▁left": 1075,
      "complete": 1076,
      "東京": 1077,
      "up": 1078,
      "▁sure": 1079,
      "time": 1080,
      "だと": 1081,
      "ference": 1082,
      "ability": 1083,
      "▁O": 1084,
      "▁collect": 1085,
      "test": 1086,
      "ous": 1087,
      "▁pre": 1088,
      "今回は": 1089,
      "mportant": 1090,
      "io": 1091,
      "▁making": 1092,
      "▁week": 1093,
      "▁called": 1094,
      "▁United": 1095,
      "List": 1096,
      "▁b": 1097,
      "line": 1098,
      "students": 1099,
      "▁post": 1100,
      "｜": 1101,
      "▁today": 1102,
      "▁given": 1103,
      "▁v": 1104,
      "者": 1105,
      "specific": 1106,
      "のが": 1107,
      "▁problem": 1108,
      "These": 1109,
      "dividual": 1110,
      "高": 1111,
      "▁based": 1112,
      "数": 1113,
      "However": 1114,
      "▁man": 1115,
      "together": 1116,
      "▁run": 1117,
      "($": 1118,
      "▁final": 1119,
      "▁why": 1120,
      "services": 1121,
      "**": 1122,
      "９": 1123,
      "▁social": 1124,
      "▁four": 1125,
      "下": 1126,
      "▁read": 1127,
      "そう": 1128,
      "にて": 1129,
      "def": 1130,
      "サイズ": 1131,
      "になります": 1132,
      "ref": 1133,
      "▁until": 1134,
      "セット": 1135,
      "comment": 1136,
      "▁report": 1137,
      "＞": 1138,
      "▁already": 1139,
      "手": 1140,
      "One": 1141,
      "ized": 1142,
      "▁away": 1143,
      "▁course": 1144,
      "す": 1145,
      "value": 1146,
      "株式会社": 1147,
      "After": 1148,
      "▁care": 1149,
      "National": 1150,
      "さらに": 1151,
      "性": 1152,
      "▁keep": 1153,
      "▁import": 1154,
      "名無しさん": 1155,
      "ン": 1156,
      "▁model": 1157,
      "！」": 1158,
      "後": 1159,
      "▁State": 1160,
      "▁large": 1161,
      "▁protect": 1162,
      "▁general": 1163,
      "ic": 1164,
      "building": 1165,
      "▁music": 1166,
      "How": 1167,
      "list": 1168,
      "三": 1169,
      "st": 1170,
      "化": 1171,
      "My": 1172,
      "特に": 1173,
      "▁having": 1174,
      "商品": 1175,
      "▁across": 1176,
      "ch": 1177,
      "add": 1178,
      "▁condi": 1179,
      "ド": 1180,
      "▁old": 1181,
      "▁become": 1182,
      "▁null": 1183,
      "ている": 1184,
      "対応": 1185,
      "▁event": 1186,
      "▁profess": 1187,
      "▁future": 1188,
      "事": 1189,
      "▁thought": 1190,
      "ご": 1191,
      "▁organiz": 1192,
      "▁thing": 1193,
      "▁level": 1194,
      "ただ": 1195,
      "▁women": 1196,
      "▁operat": 1197,
      "response": 1198,
      "mental": 1199,
      "色": 1200,
      "き": 1201,
      "/**": 1202,
      "▁void": 1203,
      "▁often": 1204,
      "▁call": 1205,
      "ズ": 1206,
      "▁key": 1207,
      "user": 1208,
      "生": 1209,
      "▁V": 1210,
      "ture": 1211,
      "▁sign": 1212,
      "▁far": 1213,
      "み": 1214,
      "により": 1215,
      "▁feel": 1216,
      "▁several": 1217,
      "▁city": 1218,
      "▁means": 1219,
      "▁May": 1220,
      "のですが": 1221,
      "方法": 1222,
      "Re": 1223,
      "部": 1224,
      "▁online": 1225,
      "あり": 1226,
      "いた": 1227,
      "さんの": 1228,
      "▁No": 1229,
      "ことができます": 1230,
      "ゲーム": 1231,
      "▁season": 1232,
      "なんて": 1233,
      "▁law": 1234,
      "▁done": 1235,
      "ちょっと": 1236,
      "▁least": 1237,
      "addition": 1238,
      "▁York": 1239,
      "left": 1240,
      "▁less": 1241,
      "▁：": 1242,
      "material": 1243,
      "会": 1244,
      "///": 1245,
      "▁relat": 1246,
      "')": 1247,
      "▁site": 1248,
      "▁study": 1249,
      "▁side": 1250,
      "系": 1251,
      "param": 1252,
      "resource": 1253,
      "での": 1254,
      "ル": 1255,
      "▁live": 1256,
      "▁St": 1257,
      "▁direct": 1258,
      "▁fact": 1259,
      "ism": 1260,
      "点": 1261,
      "▁big": 1262,
      "▁money": 1263,
      "力": 1264,
      "リ": 1265,
      "▁didn": 1266,
      "代": 1267,
      "▁able": 1268,
      "▁along": 1269,
      "▁certain": 1270,
      "▁version": 1271,
      "▁space": 1272,
      "os": 1273,
      "▁account": 1274,
      "ground": 1275,
      "▁website": 1276,
      "これ": 1277,
      "ような": 1278,
      "▁false": 1279,
      "▁continu": 1280,
      "▁string": 1281,
      "Programm": 1282,
      "▁known": 1283,
      "▁World": 1284,
      "tive": 1285,
      "required": 1286,
      "▁sub": 1287,
      "▁times": 1288,
      "▁environ": 1289,
      "Our": 1290,
      "▁Code": 1291,
      "的な": 1292,
      "▁past": 1293,
      "▁history": 1294,
      "▁ever": 1295,
      "ness": 1296,
      "▁main": 1297,
      "▁int": 1298,
      "▁came": 1299,
      "▁looking": 1300,
      "▁enough": 1301,
      "時に": 1302,
      "▁human": 1303,
      "▁manage": 1304,
      "property": 1305,
      "▁members": 1306,
      "法": 1307,
      "Get": 1308,
      "▁let": 1309,
      "全": 1310,
      "▁l": 1311,
      "内": 1312,
      "▁early": 1313,
      "コ": 1314,
      "物": 1315,
      "万": 1316,
      "▁film": 1317,
      "ar": 1318,
      "js": 1319,
      "tr": 1320,
      "▁house": 1321,
      "log": 1322,
      "万円": 1323,
      "ノ": 1324,
      "▁Co": 1325,
      "美": 1326,
      "location": 1327,
      "？」": 1328,
      "▁head": 1329,
      "▁series": 1330,
      "▁though": 1331,
      "▁later": 1332,
      "▁results": 1333,
      "元": 1334,
      "ted": 1335,
      "▁single": 1336,
      "▁page": 1337,
      "▁States": 1338,
      "▁educat": 1339,
      "▁doesn": 1340,
      "▁range": 1341,
      "From": 1342,
      "でしょう": 1343,
      "▁app": 1344,
      "見": 1345,
      "ポイント": 1346,
      "~": 1347,
      "personal": 1348,
      "ively": 1349,
      "__": 1350,
      "from": 1351,
      "◆": 1352,
      "▁code": 1353,
      "▁due": 1354,
      "key": 1355,
      "```": 1356,
      "▁City": 1357,
      "いる": 1358,
      "▁light": 1359,
      "▁treat": 1360,
      "▁hard": 1361,
      "仕事": 1362,
      "stand": 1363,
      "▁needs": 1364,
      "▁US": 1365,
      "▁hand": 1366,
      "▁field": 1367,
      "▁address": 1368,
      "すると": 1369,
      "▁discuss": 1370,
      "standing": 1371,
      "▁car": 1372,
      "></": 1373,
      "にある": 1374,
      "file": 1375,
      "path": 1376,
      "女性": 1377,
      "▁above": 1378,
      "▁di": 1379,
      "▁opportu": 1380,
      "歳": 1381,
      "ク": 1382,
      "continue": 1383,
      "よう": 1384,
      "本当に": 1385,
      "ト": 1386,
      "家": 1387,
      "▁others": 1388,
      "車": 1389,
      "all": 1390,
      "ながら": 1391,
      "▁record": 1392,
      "▁believe": 1393,
      "▁makes": 1394,
      "▁reason": 1395,
      "](": 1396,
      "age": 1397,
      "▁once": 1398,
      "わ": 1399,
      "▁body": 1400,
      "▁took": 1401,
      "まだ": 1402,
      "映画": 1403,
      "▁x": 1404,
      "号": 1405,
      "▁politic": 1406,
      "▁Inter": 1407,
      "東": 1408,
      "/*": 1409,
      "ラ": 1410,
      "▁doing": 1411,
      "▁request": 1412,
      "サイト": 1413,
      "▁won": 1414,
      "actually": 1415,
      "他の": 1416,
      "▁food": 1417,
      "▁media": 1418,
      "う": 1419,
      "様": 1420,
      "standard": 1421,
      "とても": 1422,
      "出": 1423,
      "ible": 1424,
      "った": 1425,
      "います": 1426,
      "▁March": 1427,
      "!!": 1428,
      "ccording": 1429,
      "▁whether": 1430,
      "川": 1431,
      "industry": 1432,
      "▁author": 1433,
      "original": 1434,
      "それは": 1435,
      "▁et": 1436,
      "▁De": 1437,
      "less": 1438,
      "▁user": 1439,
      "▁short": 1440,
      "▁five": 1441,
      "item": 1442,
      "▁publish": 1443,
      "▁method": 1444,
      "され": 1445,
      "新しい": 1446,
      "▁seen": 1447,
      "▁object": 1448,
      "An": 1449,
      "New": 1450,
      "▁try": 1451,
      "jp": 1452,
      "expected": 1453,
      "イベント": 1454,
      "▁//": 1455,
      "カ": 1456,
      "▁const": 1457,
      "目": 1458,
      "View": 1459,
      "▁!=": 1460,
      "▁started": 1461,
      "私の": 1462,
      "二": 1463,
      "previous": 1464,
      "▁view": 1465,
      "長": 1466,
      "▁quality": 1467,
      "風": 1468,
      "private": 1469,
      "ちゃん": 1470,
      "田": 1471,
      "▁kind": 1472,
      "▁video": 1473,
      "tructure": 1474,
      "▁night": 1475,
      "▁action": 1476,
      "▁role": 1477,
      "approach": 1478,
      "▁yet": 1479,
      "▁check": 1480,
      "▁member": 1481,
      "デザイン": 1482,
      "花": 1483,
      "index": 1484,
      "ization": 1485,
      "▁comes": 1486,
      "線": 1487,
      "security": 1488,
      "decision": 1489,
      "のです": 1490,
      "ne": 1491,
      "customer": 1492,
      "▁months": 1493,
      "白": 1494,
      "ほど": 1495,
      "▁offer": 1496,
      "▁January": 1497,
      "いて": 1498,
      "While": 1499,
      "ie": 1500,
      "let": 1501,
      "▁percent": 1502,
      "▁further": 1503,
      "▁energy": 1504,
      "問題": 1505,
      "▁add": 1506,
      "include": 1507,
      "▁getting": 1508,
      "▁plan": 1509,
      "frac": 1510,
      "language": 1511,
      "南": 1512,
      "▁share": 1513,
      "▁contain": 1514,
      "▁job": 1515,
      "あ": 1516,
      "かな": 1517,
      "github": 1518,
      "\";": 1519,
      "無料": 1520,
      "写真": 1521,
      "それ": 1522,
      "');": 1523,
      "▁School": 1524,
      "があり": 1525,
      "Value": 1526,
      "land": 1527,
      "カード": 1528,
      "に関する": 1529,
      "▁went": 1530,
      "各": 1531,
      "▁size": 1532,
      "}$": 1533,
      "▁among": 1534,
      "▁bit": 1535,
      "何": 1536,
      "▁either": 1537,
      "table": 1538,
      "▁South": 1539,
      "台": 1540,
      "▁Ca": 1541,
      "back": 1542,
      "機能": 1543,
      "year": 1544,
      "道": 1545,
      "▁April": 1546,
      "▁major": 1547,
      "December": 1548,
      "▁June": 1549,
      "}{": 1550,
      "▁X": 1551,
      "▁compani": 1552,
      "▁install": 1553,
      "カラー": 1554,
      "November": 1555,
      "付き": 1556,
      "▁To": 1557,
      "▁issues": 1558,
      "大学": 1559,
      "▁below": 1560,
      "be": 1561,
      "▁content": 1562,
      "********": 1563,
      "▁express": 1564,
      "▁young": 1565,
      "width": 1566,
      "いい": 1567,
      "▁low": 1568,
      "form": 1569,
      "▁John": 1570,
      "▁North": 1571,
      "use": 1572,
      "OK": 1573,
      "ul": 1574,
      "西": 1575,
      "されている": 1576,
      "▁told": 1577,
      "▁generat": 1578,
      "のみ": 1579,
      "▁God": 1580,
      "たい": 1581,
      "▁photo": 1582,
      "br": 1583,
      "ors": 1584,
      "ia": 1585,
      "me": 1586,
      "el": 1587,
      "▁men": 1588,
      "assert": 1589,
      "▁whole": 1590,
      "app": 1591,
      "▁style": 1592,
      "▁error": 1593,
      "タイプ": 1594,
      "res": 1595,
      "良い": 1596,
      "▁cost": 1597,
      "島": 1598,
      "▁build": 1599,
      "▁y": 1600,
      "▁href": 1601,
      "▁July": 1602,
      "野": 1603,
      "－": 1604,
      "こ": 1605,
      "ています": 1606,
      "▁issue": 1607,
      "国": 1608,
      "管理": 1609,
      "▁You": 1610,
      "▁suggest": 1611,
      "▁private": 1612,
      "▁total": 1613,
      "▁room": 1614,
      "人の": 1615,
      "同じ": 1616,
      "PC": 1617,
      "版": 1618,
      "Error": 1619,
      "ists": 1620,
      "▁clear": 1621,
      "where": 1622,
      "(\\": 1623,
      "度": 1624,
      "script": 1625,
      "▁potenti": 1626,
      "光": 1627,
      "▁child": 1628,
      "よく": 1629,
      "▁easy": 1630,
      "神": 1631,
      "販売": 1632,
      "和": 1633,
      "▁expect": 1634,
      "していた": 1635,
      "マ": 1636,
      "▁respect": 1637,
      "からの": 1638,
      "▁works": 1639,
      "となる": 1640,
      "ibility": 1641,
      "海": 1642,
      "▁similar": 1643,
      "▁period": 1644,
      "または": 1645,
      "▁America": 1646,
      "▁https": 1647,
      "▁hours": 1648,
      "▁contact": 1649,
      "つの": 1650,
      "▁»": 1651,
      "go": 1652,
      "事業": 1653,
      "’": 1654,
      "▁improve": 1655,
      "▁static": 1656,
      "式": 1657,
      "▁pro": 1658,
      "ting": 1659,
      "▁ago": 1660,
      "▁network": 1661,
      "よりも": 1662,
      "▁move": 1663,
      "training": 1664,
      "システム": 1665,
      "現在": 1666,
      "環境": 1667,
      "].": 1668,
      "動画": 1669,
      "場所": 1670,
      "私": 1671,
      "シリーズ": 1672,
      "▁...": 1673,
      "url": 1674,
      "のある": 1675,
      "イ": 1676,
      "地": 1677,
      "field": 1678,
      "生活": 1679,
      "ication": 1680,
      "min": 1681,
      "少し": 1682,
      "ホテル": 1683,
      "▁close": 1684,
      "▁third": 1685,
      "だけで": 1686,
      "▁&&": 1687,
      "style": 1688,
      "利用": 1689,
      "ating": 1690,
      "un": 1691,
      "になった": 1692,
      "▁taken": 1693,
      "▁art": 1694,
      "▁idea": 1695,
      "provided": 1696,
      "▁search": 1697,
      "NAME": 1698,
      "ブログ": 1699,
      "人は": 1700,
      "File": 1701,
      "color": 1702,
      "▁changes": 1703,
      "am": 1704,
      "val": 1705,
      "son": 1706,
      "今日は": 1707,
      "Set": 1708,
      "購入": 1709,
      "▁global": 1710,
      "▁various": 1711,
      "▁subject": 1712,
      "心": 1713,
      "大きな": 1714,
      "データ": 1715,
      "▁text": 1716,
      "equation": 1717,
      "▁perfect": 1718,
      "features": 1719,
      "▁House": 1720,
      "▁added": 1721,
      "Now": 1722,
      "input": 1723,
      "会社": 1724,
      "外": 1725,
      "▁face": 1726,
      "▁October": 1727,
      "ine": 1728,
      "▁Con": 1729,
      "前に": 1730,
      "＋": 1731,
      "em": 1732,
      "Object": 1733,
      "▁represe": 1734,
      "▁games": 1735,
      "▁points": 1736,
      "▁everyth": 1737,
      "＜": 1738,
      "ナ": 1739,
      "increase": 1740,
      "作品": 1741,
      "▁applica": 1742,
      "ダ": 1743,
      "ently": 1744,
      "となります": 1745,
      "レ": 1746,
      "().": 1747,
      "▁【": 1748,
      "▁article": 1749,
      "▁necess": 1750,
      "したい": 1751,
      "▁taking": 1752,
      "api": 1753,
      "▁events": 1754,
      "ma": 1755,
      "▁almost": 1756,
      "▁half": 1757,
      "▁created": 1758,
      "……": 1759,
      "_{\\": 1760,
      "▁image": 1761,
      "ences": 1762,
      "できます": 1763,
      "));": 1764,
      "State": 1765,
      "▁visit": 1766,
      "体": 1767,
      "products": 1768,
      "based": 1769,
      "};": 1770,
      "活動": 1771,
      "企業": 1772,
      "▁writing": 1773,
      "ological": 1774,
      "php": 1775,
      "のような": 1776,
      "枚": 1777,
      "愛": 1778,
      "▁August": 1779,
      "icular": 1780,
      "construc": 1781,
      "こんな": 1782,
      "ではなく": 1783,
      "})": 1784,
      "ry": 1785,
      "start": 1786,
      "屋": 1787,
      "所": 1788,
      "ことで": 1789,
      "February": 1790,
      "日本の": 1791,
      "my": 1792,
      "Some": 1793,
      "practice": 1794,
      "まず": 1795,
      "超": 1796,
      "received": 1797,
      "▁date": 1798,
      "▁month": 1799,
      "print": 1800,
      "▁rights": 1801,
      "▁pay": 1802,
      "link": 1803,
      "使用": 1804,
      "同": 1805,
      "▁West": 1806,
      "determin": 1807,
      "▁trying": 1808,
      ">>": 1809,
      "▁source": 1810,
      "＝": 1811,
      "▁shows": 1812,
      "▁however": 1813,
      "void": 1814,
      "▁age": 1815,
      "anything": 1816,
      "北": 1817,
      "▁County": 1818,
      "っ": 1819,
      "▁natural": 1820,
      "▁mean": 1821,
      "人が": 1822,
      "▁Center": 1823,
      "state": 1824,
      "▁price": 1825,
      "▁respons": 1826,
      "▁review": 1827,
      "品": 1828,
      "▁message": 1829,
      "石": 1830,
      "▁black": 1831,
      "▁strong": 1832,
      "▁rather": 1833,
      "▁News": 1834,
      "▁recent": 1835,
      "with": 1836,
      "プロ": 1837,
      "）、": 1838,
      "人気": 1839,
      "行": 1840,
      "▁learn": 1841,
      "▁common": 1842,
      "む": 1843,
      "▁white": 1844,
      "▁news": 1845,
      "戦": 1846,
      "ことを": 1847,
      "▁String": 1848,
      "平": 1849,
      "challeng": 1850,
      "であり": 1851,
      "様々な": 1852,
      "});": 1853,
      "▁areas": 1854,
      "ネット": 1855,
      "画像": 1856,
      "世界": 1857,
      "▁lead": 1858,
      "▁policy": 1859,
      "▁display": 1860,
      "ず": 1861,
      "da": 1862,
      "▁likely": 1863,
      "内容": 1864,
      "▁held": 1865,
      "▁table": 1866,
      "▁Septemb": 1867,
      "価格": 1868,
      "Here": 1869,
      "▁Christ": 1870,
      "については": 1871,
      "私が": 1872,
      "▁System": 1873,
      "bar": 1874,
      "地域": 1875,
      "▁color": 1876,
      "▁financi": 1877,
      "▁mind": 1878,
      "▁forward": 1879,
      "▁especi": 1880,
      "無": 1881,
      "社": 1882,
      "title": 1883,
      "cite": 1884,
      "天": 1885,
      "ません": 1886,
      "▁bring": 1887,
      "ra": 1888,
      "old": 1889,
      "対策": 1890,
      "}}": 1891,
      "top": 1892,
      "以上": 1893,
      "ま": 1894,
      "ical": 1895,
      "Info": 1896,
      "▁front": 1897,
      "▁amount": 1898,
      "▁someone": 1899,
      "Is": 1900,
      "番": 1901,
      "one": 1902,
      "でしょうか": 1903,
      "作業": 1904,
      "Then": 1905,
      "との": 1906,
      "における": 1907,
      "election": 1908,
      "do": 1909,
      "▁quite": 1910,
      "まずは": 1911,
      "個": 1912,
      "na": 1913,
      "▁via": 1914,
      "His": 1915,
      "▁partner": 1916,
      "▁http": 1917,
      "サ": 1918,
      "▁war": 1919,
      "str": 1920,
      "error": 1921,
      "もちろん": 1922,
      "コース": 1923,
      "tor": 1924,
      "▁needed": 1925,
      "Not": 1926,
      "▁office": 1927,
      "yyy": 1928,
      "▁select": 1929,
      "director": 1930,
      "tional": 1931,
      "といった": 1932,
      "▁shall": 1933,
      "========": 1934,
      "▁staff": 1935,
      "▁allow": 1936,
      "▁terms": 1937,
      "モデル": 1938,
      "▁living": 1939,
      "気": 1940,
      "口": 1941,
      "及び": 1942,
      "以下": 1943,
      "ん": 1944,
      "nd": 1945,
      "▁section": 1946,
      "';": 1947,
      "▁||": 1948,
      "▁simple": 1949,
      "Do": 1950,
      "▁cases": 1951,
      "economic": 1952,
      "▁fun": 1953,
      "Of": 1954,
      "▁UK": 1955,
      "▁cannot": 1956,
      "年に": 1957,
      "▁release": 1958,
      "▁upon": 1959,
      "自分": 1960,
      "▁Health": 1961,
      "▁matter": 1962,
      "村": 1963,
      "オ": 1964,
      "▁coming": 1965,
      "え": 1966,
      "ケース": 1967,
      "▁air": 1968,
      "▁except": 1969,
      "場合": 1970,
      "▁minutes": 1971,
      "かなり": 1972,
      "▁risk": 1973,
      "教育": 1974,
      "▁heart": 1975,
      "platform": 1976,
      "ブランド": 1977,
      "▁We": 1978,
      "▁friends": 1979,
      "probably": 1980,
      "しない": 1981,
      "Key": 1982,
      "のように": 1983,
      "Text": 1984,
      "▁hope": 1985,
      "='": 1986,
      "できない": 1987,
      "▁el": 1988,
      "▁seems": 1989,
      "▁systems": 1990,
      "音": 1991,
      "omponent": 1992,
      "さんが": 1993,
      "▁appear": 1994,
      "▁court": 1995,
      "Request": 1996,
      "());": 1997,
      "▁death": 1998,
      "▁options": 1999,
      "に対して": 2000,
      "▁behind": 2001,
      "黒": 2002,
      "▁increas": 2003,
      "まとめ": 2004,
      "および": 2005,
      "▁near": 2006,
      "赤": 2007,
      "▁unique": 2008,
      "▁party": 2009,
      "れば": 2010,
      "ｗ": 2011,
      "software": 2012,
      "▁break": 2013,
      "▁der": 2014,
      "map": 2015,
      "センター": 2016,
      "食": 2017,
      "ぜひ": 2018,
      "場合は": 2019,
      "実際に": 2020,
      "▁:=": 2021,
      "において": 2022,
      "真": 2023,
      "▁impact": 2024,
      "いつも": 2025,
      "▁tell": 2026,
      "▁tradit": 2027,
      "どんな": 2028,
      "▁turn": 2029,
      "▁deliver": 2030,
      "▁enter": 2031,
      "のに": 2032,
      "instance": 2033,
      "バー": 2034,
      "Service": 2035,
      "原": 2036,
      "employee": 2037,
      "▁former": 2038,
      "評価": 2039,
      "▁activ": 2040,
      "頭": 2041,
      "▁target": 2042,
      "everyone": 2043,
      "今回の": 2044,
      "▁higher": 2045,
      "をする": 2046,
      "いたします": 2047,
      "db": 2048,
      "設定": 2049,
      "日に": 2050,
      "タ": 2051,
      "▁leader": 2052,
      "▁values": 2053,
      "実は": 2054,
      "register": 2055,
      "];": 2056,
      "▁words": 2057,
      "平成": 2058,
      "contract": 2059,
      "▁establ": 2060,
      "▁id": 2061,
      "else": 2062,
      "別": 2063,
      "○": 2064,
      "ley": 2065,
      "Director": 2066,
      "▁six": 2067,
      "▁wanted": 2068,
      "▁please": 2069,
      "限定": 2070,
      "ビジネス": 2071,
      "▁running": 2072,
      "pi": 2073,
      "ionship": 2074,
      "▁applic": 2075,
      "▁popular": 2076,
      "しか": 2077,
      "毎日": 2078,
      "ために": 2079,
      "アプリ": 2080,
      "Research": 2081,
      "length": 2082,
      "アップ": 2083,
      "info": 2084,
      "▁nothing": 2085,
      "Test": 2086,
      "夏": 2087,
      "マン": 2088,
      "▁receive": 2089,
      "そうです": 2090,
      "他": 2091,
      "面": 2092,
      "不": 2093,
      "▁focus": 2094,
      "▁rate": 2095,
      "になって": 2096,
      "ですよね": 2097,
      "▁sense": 2098,
      "何か": 2099,
      "▁die": 2100,
      "なんか": 2101,
      "件": 2102,
      "▁deal": 2103,
      "んだ": 2104,
      "ter": 2105,
      "▁outside": 2106,
      "▁student": 2107,
      "▁g": 2108,
      "ム": 2109,
      "?\"": 2110,
      "▁All": 2111,
      "着": 2112,
      "investig": 2113,
      "▁Pro": 2114,
      "▁super": 2115,
      "音楽": 2116,
      "mu": 2117,
      "analysis": 2118,
      "▁became": 2119,
      "▁title": 2120,
      "ザ": 2121,
      "nity": 2122,
      "形": 2123,
      "技術": 2124,
      "▁asked": 2125,
      "ハ": 2126,
      "▁For": 2127,
      "文": 2128,
      "▁travel": 2129,
      "max": 2130,
      "そこで": 2131,
      "ledge": 2132,
      "ありがとうござい": 2133,
      "autiful": 2134,
      "店舗": 2135,
      "▁meeting": 2136,
      "▁impleme": 2137,
      "▁offers": 2138,
      "▁step": 2139,
      "と思う": 2140,
      "んです": 2141,
      "の中で": 2142,
      "登録": 2143,
      "ished": 2144,
      "Context": 2145,
      "included": 2146,
      "治療": 2147,
      "多くの": 2148,
      "イン": 2149,
      "というのは": 2150,
      "template": 2151,
      "▁takes": 2152,
      "料理": 2153,
      "）」": 2154,
      "case": 2155,
      "▁situa": 2156,
      "感": 2157,
      "alpha": 2158,
      "Facebook": 2159,
      "ommittee": 2160,
      "を使って": 2161,
      "調査": 2162,
      "▁La": 2163,
      "かもしれません": 2164,
      "pm": 2165,
      "最近": 2166,
      "▁India": 2167,
      "よね": 2168,
      "times": 2169,
      "付": 2170,
      "▁concern": 2171,
      "研究": 2172,
      "▁Depart": 2173,
      "プラン": 2174,
      "▁<<": 2175,
      "learning": 2176,
      "▁career": 2177,
      "•": 2178,
      "▁wonder": 2179,
      "twitter": 2180,
      "fully": 2181,
      "▁simply": 2182,
      "▁countri": 2183,
      "body": 2184,
      "ce": 2185,
      "▁China": 2186,
      "']": 2187,
      "結果": 2188,
      "▁custom": 2189,
      "ジ": 2190,
      "\\\\": 2191,
      "model": 2192,
      "すること": 2193,
      "男": 2194,
      "▁THE": 2195,
      "ば": 2196,
      "たら": 2197,
      "予約": 2198,
      "効果": 2199,
      "▁win": 2200,
      "▁San": 2201,
      "▁competi": 2202,
      "なく": 2203,
      "▁path": 2204,
      "▁remain": 2205,
      "▁isn": 2206,
      "撮影": 2207,
      "▁paper": 2208,
      "▁enjoy": 2209,
      "▁players": 2210,
      "それが": 2211,
      "▁Dr": 2212,
      "表": 2213,
      "なし": 2214,
      "シ": 2215,
      "▁happen": 2216,
      "▁TV": 2217,
      "create": 2218,
      "さんは": 2219,
      "node": 2220,
      "▁instead": 2221,
      "patients": 2222,
      "）。": 2223,
      "先": 2224,
      "image": 2225,
      "py": 2226,
      "ificant": 2227,
      "est": 2228,
      "間": 2229,
      "大阪": 2230,
      "▁Act": 2231,
      "config": 2232,
      "▁itself": 2233,
      "だが": 2234,
      "ca": 2235,
      "スポーツ": 2236,
      "としては": 2237,
      "ﾞ": 2238,
      "機": 2239,
      "▁worked": 2240,
      "▁ways": 2241,
      "▁This": 2242,
      "download": 2243,
      "][": 2244,
      "▁Park": 2245,
      "section": 2246,
      "▁w": 2247,
      "▁growth": 2248,
      "multiple": 2249,
      "▁stop": 2250,
      "もっと": 2251,
      "フ": 2252,
      "(),": 2253,
      "using": 2254,
      "▁London": 2255,
      "ことが": 2256,
      "キ": 2257,
      "ED": 2258,
      "開発": 2259,
      "▁correct": 2260,
      "やはり": 2261,
      "エ": 2262,
      "▁base": 2263,
      "ページ": 2264,
      "▁email": 2265,
      "なかった": 2266,
      "▁feature": 2267,
      "\",\"": 2268,
      "json": 2269,
      "おすすめ": 2270,
      "の場合": 2271,
      "▁screen": 2272,
      "ms": 2273,
      "書": 2274,
      "▁built": 2275,
      "▁written": 2276,
      "ative": 2277,
      "オンライン": 2278,
      "▁lives": 2279,
      "▁related": 2280,
      "mathcal": 2281,
      "▁Court": 2282,
      "md": 2283,
      "▁details": 2284,
      "▁und": 2285,
      "la": 2286,
      "rs": 2287,
      "refore": 2288,
      "バ": 2289,
      "に対する": 2290,
      "▁prevent": 2291,
      "記事": 2292,
      "▁soon": 2293,
      "▁ensure": 2294,
      "ことは": 2295,
      "▁Black": 2296,
      "あなたの": 2297,
      "今回": 2298,
      "reported": 2299,
      "ians": 2300,
      "だけでなく": 2301,
      "▁late": 2302,
      "曲": 2303,
      "▁began": 2304,
      "▁multi": 2305,
      "の方が": 2306,
      "あまり": 2307,
      "▁explain": 2308,
      "味": 2309,
      "▁default": 2310,
      "その他": 2311,
      "ta": 2312,
      "▁English": 2313,
      "▁region": 2314,
      "recently": 2315,
      "▁meet": 2316,
      "ミ": 2317,
      "▁n": 2318,
      "java": 2319,
      "▁Be": 2320,
      "サポート": 2321,
      "▁im": 2322,
      "Add": 2323,
      "▁rest": 2324,
      "▁k": 2325,
      "space": 2326,
      "positive": 2327,
      "それを": 2328,
      "sub": 2329,
      "Business": 2330,
      "参加": 2331,
      "有": 2332,
      "氏": 2333,
      "体験": 2334,
      "▁average": 2335,
      "▁longer": 2336,
      "ml": 2337,
      "バス": 2338,
      "紹介": 2339,
      "▁extra": 2340,
      "なのか": 2341,
      "])": 2342,
      "##": 2343,
      "▁в": 2344,
      "Time": 2345,
      "European": 2346,
      "campaign": 2347,
      "▁users": 2348,
      "img": 2349,
      "▁Q": 2350,
      "mselves": 2351,
      "▁provid": 2352,
      "ty": 2353,
      "あと": 2354,
      "▁center": 2355,
      "くらい": 2356,
      "すぐに": 2357,
      "▁groups": 2358,
      "▁adminis": 2359,
      "▁police": 2360,
      "▁Mr": 2361,
      "▁tax": 2362,
      "施設": 2363,
      "▁legal": 2364,
      "▁etc": 2365,
      "distribu": 2366,
      "▁saw": 2367,
      "off": 2368,
      "▁word": 2369,
      "自分が": 2370,
      "define": 2371,
      "Let": 2372,
      "port": 2373,
      "^{": 2374,
      "progress": 2375,
      "▁reading": 2376,
      "正": 2377,
      "足": 2378,
      "春": 2379,
      "▁bad": 2380,
      "▁(@": 2381,
      "▁inside": 2382,
      "Since": 2383,
      "▁War": 2384,
      "▁medical": 2385,
      "▁land": 2386,
      "ところ": 2387,
      "▁culture": 2388,
      "▁describ": 2389,
      "あの": 2390,
      "▁Day": 2391,
      ")$": 2392,
      "アニメ": 2393,
      "状況": 2394,
      "▁write": 2395,
      "等の": 2396,
      "▁lower": 2397,
      "パン": 2398,
      "▁latest": 2399,
      "したり": 2400,
      "Or": 2401,
      "Item": 2402,
      "())": 2403,
      "編": 2404,
      "御": 2405,
      "▁Inc": 2406,
      "メーカー": 2407,
      "▁Al": 2408,
      "･": 2409,
      "not": 2410,
      "一覧": 2411,
      "lifornia": 2412,
      "▁moment": 2413,
      "米": 2414,
      "discover": 2415,
      "ize": 2416,
      "involved": 2417,
      "▁Man": 2418,
      "lib": 2419,
      "社会": 2420,
      "▁pass": 2421,
      "したら": 2422,
      "すれば": 2423,
      "場": 2424,
      "▁consist": 2425,
      "▁modern": 2426,
      "ling": 2427,
      "明": 2428,
      "au": 2429,
      "城": 2430,
      "▁regard": 2431,
      "view": 2432,
      "wide": 2433,
      "例えば": 2434,
      "業務": 2435,
      "▁mention": 2436,
      "Please": 2437,
      "デ": 2438,
      "▁pretty": 2439,
      "相談": 2440,
      "▁complex": 2441,
      "年の": 2442,
      "▁conduct": 2443,
      "ad": 2444,
      "Model": 2445,
      "▁regular": 2446,
      "▁array": 2447,
      "designed": 2448,
      "released": 2449,
      "らしい": 2450,
      "ロ": 2451,
      "▁College": 2452,
      "例": 2453,
      "Size": 2454,
      "post": 2455,
      "includes": 2456,
      "営業": 2457,
      "▁leave": 2458,
      "支援": 2459,
      "More": 2460,
      "rm": 2461,
      "確認": 2462,
      "▁books": 2463,
      "予定": 2464,
      "▁buy": 2465,
      "maintain": 2466,
      "▁leading": 2467,
      "ency": 2468,
      "だけど": 2469,
      "▁Z": 2470,
      "▁depend": 2471,
      "もし": 2472,
      "▁cause": 2473,
      "▁board": 2474,
      "row": 2475,
      "▁OF": 2476,
      "いました": 2477,
      "remember": 2478,
      "group": 2479,
      "のために": 2480,
      "的に": 2481,
      "させる": 2482,
      "▁talk": 2483,
      "um": 2484,
      "len": 2485,
      "▁context": 2486,
      "一番": 2487,
      "▁term": 2488,
      "▁fire": 2489,
      "関係": 2490,
      "Event": 2491,
      "▁comment": 2492,
      "馬": 2493,
      "契約": 2494,
      "▁lost": 2495,
      "▁Group": 2496,
      "iPhone": 2497,
      "▁Street": 2498,
      "▁sound": 2499,
      "evidence": 2500,
      "高い": 2501,
      "寺": 2502,
      "男性": 2503,
      "Path": 2504,
      "状態": 2505,
      "Message": 2506,
      "▁Trump": 2507,
      "▁err": 2508,
      "▁Associa": 2509,
      "computer": 2510,
      "terface": 2511,
      "Google": 2512,
      "date": 2513,
      "result": 2514,
      "▁Me": 2515,
      "♡": 2516,
      "configur": 2517,
      "ちなみに": 2518,
      "«": 2519,
      "▁web": 2520,
      "▁playing": 2521,
      "▁entire": 2522,
      "Windows": 2523,
      "◎": 2524,
      "▁device": 2525,
      "▁License": 2526,
      "▁se": 2527,
      "CD": 2528,
      "▁anti": 2529,
      "しながら": 2530,
      "経験": 2531,
      "Response": 2532,
      "ランキング": 2533,
      "US": 2534,
      "▁celebr": 2535,
      "ifficult": 2536,
      "作": 2537,
      "▁states": 2538,
      "ol": 2539,
      "私も": 2540,
      "▁friend": 2541,
      "ブラック": 2542,
      "夜": 2543,
      "量": 2544,
      "▁played": 2545,
      "製品": 2546,
      "[]": 2547,
      "になり": 2548,
      "▁hit": 2549,
      "▁An": 2550,
      "▁weeks": 2551,
      "人間": 2552,
      "立": 2553,
      "月に": 2554,
      "▁des": 2555,
      "а": 2556,
      "day": 2557,
      "▁limit": 2558,
      "変更": 2559,
      "\"></": 2560,
      "physical": 2561,
      "surance": 2562,
      "variable": 2563,
      "してください": 2564,
      "▁measure": 2565,
      "ニ": 2566,
      "中国": 2567,
      "ically": 2568,
      "巻": 2569,
      "Also": 2570,
      "▁complet": 2571,
      "▁anyone": 2572,
      "なお": 2573,
      "▁answer": 2574,
      "ブ": 2575,
      "女": 2576,
      "株": 2577,
      "Map": 2578,
      "スーパー": 2579,
      "海外": 2580,
      "制度": 2581,
      "め": 2582,
      "初": 2583,
      "旅行": 2584,
      "▁wide": 2585,
      "▁trade": 2586,
      "ネ": 2587,
      "素材": 2588,
      "▁manufac": 2589,
      "グループ": 2590,
      "▁cover": 2591,
      "per": 2592,
      "ガ": 2593,
      "メール": 2594,
      "so": 2595,
      "やっぱり": 2596,
      "とも": 2597,
      "▁stay": 2598,
      "カフェ": 2599,
      "ニュース": 2600,
      "box": 2601,
      "electric": 2602,
      "谷": 2603,
      "セ": 2604,
      "е": 2605,
      "！　": 2606,
      "なかなか": 2607,
      "＊": 2608,
      "▁band": 2609,
      "キャンペーン": 2610,
      "交換": 2611,
      "les": 2612,
      "のため": 2613,
      "▁himself": 2614,
      "ish": 2615,
      "static": 2616,
      "種": 2617,
      "independ": 2618,
      "xception": 2619,
      "src": 2620,
      "array": 2621,
      "▁store": 2622,
      "TV": 2623,
      "▁option": 2624,
      "▁levels": 2625,
      "▁que": 2626,
      "▁track": 2627,
      "…。": 2628,
      "▁block": 2629,
      "ということで": 2630,
      "Except": 2631,
      "Node": 2632,
      "\"\"\"": 2633,
      "den": 2634,
      "▁movie": 2635,
      "he": 2636,
      "図": 2637,
      "official": 2638,
      "opyright": 2639,
      "▁Council": 2640,
      "学校": 2641,
      "」（": 2642,
      "ファン": 2643,
      "カバー": 2644,
      "true": 2645,
      "ましょう": 2646,
      "器": 2647,
      "▁couple": 2648,
      "request": 2649,
      "activity": 2650,
      "朝": 2651,
      "ということ": 2652,
      "Image": 2653,
      "ドラマ": 2654,
      "ではない": 2655,
      "rate": 2656,
      "▁**": 2657,
      "▁match": 2658,
      "▁Home": 2659,
      "などで": 2660,
      "▁woman": 2661,
      "▁command": 2662,
      "きた": 2663,
      "やすい": 2664,
      "年間": 2665,
      "kg": 2666,
      "func": 2667,
      "$.": 2668,
      "User": 2669,
      "時の": 2670,
      "中の": 2671,
      "▁goal": 2672,
      "ようです": 2673,
      "がない": 2674,
      "▁located": 2675,
      "テレビ": 2676,
      "▁r": 2677,
      "directly": 2678,
      "つまり": 2679,
      "▁Service": 2680,
      "モ": 2681,
      "........": 2682,
      "ショップ": 2683,
      "▁reflect": 2684,
      "トップ": 2685,
      "レベル": 2686,
      "Even": 2687,
      "ge": 2688,
      "num": 2689,
      "▁le": 2690,
      "メ": 2691,
      "▁loss": 2692,
      "次": 2693,
      "▁digital": 2694,
      "�": 2695,
      "Co": 2696,
      "é": 2697,
      "サン": 2698,
      "Class": 2699,
      "▁player": 2700,
      "直": 2701,
      "▁initial": 2702,
      "カット": 2703,
      "をして": 2704,
      "Resource": 2705,
      "テ": 2706,
      "▁science": 2707,
      "col": 2708,
      "▁led": 2709,
      "▁paramet": 2710,
      "英語": 2711,
      "▁It": 2712,
      "▁ask": 2713,
      "Index": 2714,
      "病院": 2715,
      "status": 2716,
      "Read": 2717,
      "丸": 2718,
      "▁phone": 2719,
      "パ": 2720,
      "▁basic": 2721,
      "率": 2722,
      "et": 2723,
      "▁oil": 2724,
      "大会": 2725,
      "表示": 2726,
      "cultural": 2727,
      "▁element": 2728,
      "工事": 2729,
      "カー": 2730,
      "ツ": 2731,
      "下さい": 2732,
      "▁attempt": 2733,
      "▁com": 2734,
      "▁Science": 2735,
      "Why": 2736,
      "▁Y": 2737,
      "▁double": 2738,
      "その後": 2739,
      "れ": 2740,
      "開催": 2741,
      "だろう": 2742,
      "▁disease": 2743,
      "たり": 2744,
      "nstitute": 2745,
      "▁Europe": 2746,
      "▁shown": 2747,
      "ティ": 2748,
      "sum": 2749,
      "ライト": 2750,
      "されています": 2751,
      "学": 2752,
      "▁town": 2753,
      "▁h": 2754,
      "チーム": 2755,
      "tration": 2756,
      "▁Canada": 2757,
      "されます": 2758,
      "wise": 2759,
      "▁choose": 2760,
      "とき": 2761,
      "core": 2762,
      "ential": 2763,
      "期間": 2764,
      "err": 2765,
      "open": 2766,
      "sociated": 2767,
      "なぜ": 2768,
      "君": 2769,
      "greement": 2770,
      "▁usually": 2771,
      "期": 2772,
      "▁wrong": 2773,
      "Many": 2774,
      "eq": 2775,
      "count": 2776,
      "カメラ": 2777,
      "Code": 2778,
      "▁ideas": 2779,
      "▁East": 2780,
      "ntation": 2781,
      "▁goes": 2782,
      "スマホ": 2783,
      "▁ready": 2784,
      "▁stage": 2785,
      "▁accept": 2786,
      "rd": 2787,
      "▁del": 2788,
      "》": 2789,
      "になりました": 2790,
      "《": 2791,
      "▁watch": 2792,
      "summary": 2793,
      "▁parents": 2794,
      "▁looks": 2795,
      "km": 2796,
      "$,": 2797,
      "選": 2798,
      "▁nature": 2799,
      "▁exist": 2800,
      "contribu": 2801,
      "更新": 2802,
      "▁copy": 2803,
      "current": 2804,
      "ケア": 2805,
      "hospital": 2806,
      "▁kids": 2807,
      "default": 2808,
      "リング": 2809,
      "▁mother": 2810,
      "▁serious": 2811,
      "▁plans": 2812,
      "provides": 2813,
      "IT": 2814,
      "▁purpose": 2815,
      "▁types": 2816,
      "ates": 2817,
      "button": 2818,
      "▁status": 2819,
      "▁link": 2820,
      "取り": 2821,
      "通り": 2822,
      "理由": 2823,
      "チ": 2824,
      "行動": 2825,
      "シャツ": 2826,
      "▁High": 2827,
      "家族": 2828,
      "しております": 2829,
      "▁guide": 2830,
      "▁billion": 2831,
      "−": 2832,
      "▁worth": 2833,
      "▁sent": 2834,
      "最大": 2835,
      "バッグ": 2836,
      "▁summer": 2837,
      "ω": 2838,
      "方は": 2839,
      "入": 2840,
      "▁road": 2841,
      "▁extens": 2842,
      "▁safety": 2843,
      "▁Art": 2844,
      "料金": 2845,
      "▁machine": 2846,
      "spective": 2847,
      "ソフト": 2848,
      "▁immedia": 2849,
      "のも": 2850,
      "base": 2851,
      "ka": 2852,
      "可能": 2853,
      "military": 2854,
      "▁capital": 2855,
      "だし": 2856,
      "ator": 2857,
      "▁General": 2858,
      "井": 2859,
      "nu": 2860,
      "公開": 2861,
      "コン": 2862,
      "▁allows": 2863,
      "条件": 2864,
      "▁input": 2865,
      "ingly": 2866,
      "URL": 2867,
      "util": 2868,
      "結婚": 2869,
      "年度": 2870,
      "mmercial": 2871,
      "Color": 2872,
      "しかも": 2873,
      "アイテム": 2874,
      "▁ground": 2875,
      "アイ": 2876,
      "塩": 2877,
      "▁benefit": 2878,
      "▁nil": 2879,
      "放送": 2880,
      "計画": 2881,
      "みんな": 2882,
      "多": 2883,
      "▁sales": 2884,
      "▁quickly": 2885,
      "▁son": 2886,
      "▁surface": 2887,
      "format": 2888,
      "▁cut": 2889,
      "作り": 2890,
      "▁gave": 2891,
      "を行う": 2892,
      "▁update": 2893,
      "align": 2894,
      "▁org": 2895,
      "ler": 2896,
      "▁Mo": 2897,
      "これが": 2898,
      "package": 2899,
      "であれば": 2900,
      "▁brand": 2901,
      "▁Of": 2902,
      "▁choice": 2903,
      "we": 2904,
      "▁client": 2905,
      "▁whose": 2906,
      "nnounced": 2907,
      "投資": 2908,
      "熱": 2909,
      "▁British": 2910,
      "ビ": 2911,
      "▁Law": 2912,
      "次の": 2913,
      "ja": 2914,
      "strength": 2915,
      "安": 2916,
      "page": 2917,
      "星": 2918,
      "▁o": 2919,
      "夢": 2920,
      "▁NULL": 2921,
      "開始": 2922,
      "▁chance": 2923,
      "\":\"": 2924,
      "青": 2925,
      "▁hold": 2926,
      "ぞ": 2927,
      "初めて": 2928,
      "▁achieve": 2929,
      "internal": 2930,
      "De": 2931,
      "se": 2932,
      "problems": 2933,
      "~\\": 2934,
      "関連": 2935,
      "入り": 2936,
      "レビュー": 2937,
      "▁stories": 2938,
      "コード": 2939,
      "空": 2940,
      "▁red": 2941,
      "▁born": 2942,
      "▁Company": 2943,
      "Just": 2944,
      "室": 2945,
      "これから": 2946,
      "▁morning": 2947,
      "house": 2948,
      "read": 2949,
      "温泉": 2950,
      "▁Google": 2951,
      "されて": 2952,
      "Property": 2953,
      "sh": 2954,
      "ramework": 2955,
      "▁met": 2956,
      "See": 2957,
      "▁towards": 2958,
      "感じ": 2959,
      "pre": 2960,
      "▁costs": 2961,
      "にして": 2962,
      "があった": 2963,
      "ttention": 2964,
      "con": 2965,
      "Field": 2966,
      "▁drive": 2967,
      "ものです": 2968,
      "▁Public": 2969,
      "First": 2970,
      "tic": 2971,
      "▁father": 2972,
      "▁univers": 2973,
      "uk": 2974,
      "産": 2975,
      "▁__": 2976,
      "▁items": 2977,
      "▁gives": 2978,
      "▁wasn": 2979,
      "▁regulat": 2980,
      "ヤ": 2981,
      "il": 2982,
      "▁saying": 2983,
      "来": 2984,
      "運動": 2985,
      "）　": 2986,
      "ro": 2987,
      "雨": 2988,
      "▁On": 2989,
      "▁save": 2990,
      "医療": 2991,
      "▼": 2992,
      "先生": 2993,
      "▁song": 2994,
      "▁apply": 2995,
      "▁skills": 2996,
      "▁decided": 2997,
      "▁White": 2998,
      "▁brought": 2999,
      "非常に": 3000,
      "▁cell": 3001,
      "コメント": 3002,
      "block": 3003,
      "重": 3004,
      "▁David": 3005,
      "▁normal": 3006,
      "企画": 3007,
      "ts": 3008,
      "more": 3009,
      "韓国": 3010,
      "階": 3011,
      "▁seem": 3012,
      "▁studies": 3013,
      "組": 3014,
      "▁safe": 3015,
      "▁album": 3016,
      "Saturday": 3017,
      "猫": 3018,
      "im": 3019,
      "▁happy": 3020,
      "ただし": 3021,
      "Count": 3022,
      "▁Washing": 3023,
      "ファイル": 3024,
      "チェック": 3025,
      "▁Govern": 3026,
      "倍": 3027,
      "place": 3028,
      "▁felt": 3029,
      "薬": 3030,
      "see": 3031,
      "専用": 3032,
      "▁And": 3033,
      "試験": 3034,
      "ずっと": 3035,
      "税込": 3036,
      "どう": 3037,
      "スタイル": 3038,
      "▁limited": 3039,
      "してる": 3040,
      "健康": 3041,
      "Title": 3042,
      "identifi": 3043,
      "一緒に": 3044,
      "database": 3045,
      "▁agree": 3046,
      "tely": 3047,
      "▁Commun": 3048,
      "run": 3049,
      "ライン": 3050,
      "そういう": 3051,
      "ustralia": 3052,
      "すぐ": 3053,
      "自分で": 3054,
      "▁Friday": 3055,
      "men": 3056,
      "client": 3057,
      "必ず": 3058,
      "選手": 3059,
      "main": 3060,
      "selected": 3061,
      "のための": 3062,
      "質問": 3063,
      "ホーム": 3064,
      "operator": 3065,
      "▁models": 3066,
      "▁beginn": 3067,
      "名前": 3068,
      "▁auto": 3069,
      "はこちら": 3070,
      "北海道": 3071,
      "［": 3072,
      "歌": 3073,
      "▁facilit": 3074,
      "電話": 3075,
      "箱": 3076,
      "▁Office": 3077,
      "Your": 3078,
      "▁hear": 3079,
      "せ": 3080,
      "通": 3081,
      "イメージ": 3082,
      "▁schools": 3083,
      "▁force": 3084,
      "▁send": 3085,
      "side": 3086,
      "▁fine": 3087,
      "郡": 3088,
      "Next": 3089,
      "かも": 3090,
      "▁credit": 3091,
      "］": 3092,
      "はないでしょうか": 3093,
      "▁card": 3094,
      "▁reach": 3095,
      "gen": 3096,
      "gh": 3097,
      "京都": 3098,
      "▁practic": 3099,
      "▁college": 3100,
      "▁Board": 3101,
      "Her": 3102,
      "Be": 3103,
      "フル": 3104,
      "公式": 3105,
      "▁green": 3106,
      "icularly": 3107,
      "term": 3108,
      "ee": 3109,
      "▁easily": 3110,
      "検査": 3111,
      "Config": 3112,
      "▁map": 3113,
      "などを": 3114,
      "▁files": 3115,
      "center": 3116,
      "active": 3117,
      "favorite": 3118,
      "families": 3119,
      "▁comfort": 3120,
      "LINE": 3121,
      "国際": 3122,
      "ると": 3123,
      "としても": 3124,
      "区": 3125,
      "んで": 3126,
      "▁parts": 3127,
      "existing": 3128,
      "Table": 3129,
      "ち": 3130,
      "顔": 3131,
      "▁effects": 3132,
      "creating": 3133,
      "毛": 3134,
      "経営": 3135,
      "オープン": 3136,
      "▁convers": 3137,
      "しましょう": 3138,
      "ディ": 3139,
      "▁My": 3140,
      "ビル": 3141,
      "▁meaning": 3142,
      "方が": 3143,
      "▁changed": 3144,
      "宮": 3145,
      "terview": 3146,
      "▁heard": 3147,
      "▁degree": 3148,
      "プロジェクト": 3149,
      "▁highly": 3150,
      "ko": 3151,
      "tributed": 3152,
      "られる": 3153,
      "ではありません": 3154,
      "like": 3155,
      "グ": 3156,
      "時は": 3157,
      "CM": 3158,
      "▁fast": 3159,
      "GB": 3160,
      "png": 3161,
      "ir": 3162,
      "ライブ": 3163,
      "vestment": 3164,
      "当": 3165,
      "Most": 3166,
      "用の": 3167,
      "▁nation": 3168,
      "▁act": 3169,
      "yourself": 3170,
      "▁extreme": 3171,
      "Manager": 3172,
      "▁variety": 3173,
      "なり": 3174,
      "勉強": 3175,
      "再": 3176,
      "講座": 3177,
      "message": 3178,
      "アメリカ": 3179,
      "dir": 3180,
      "肉": 3181,
      "処理": 3182,
      "こう": 3183,
      "桜": 3184,
      "▁giving": 3185,
      "▁He": 3186,
      "を見て": 3187,
      "学習": 3188,
      "▁tried": 3189,
      "①": 3190,
      "▁execut": 3191,
      "発表": 3192,
      "ダイエット": 3193,
      "Client": 3194,
      "でしたが": 3195,
      "実": 3196,
      "Source": 3197,
      "Amazon": 3198,
      "Services": 3199,
      "ケ": 3200,
      "考え": 3201,
      "▁prior": 3202,
      "太": 3203,
      "▁named": 3204,
      "pressure": 3205,
      "df": 3206,
      "▁picture": 3207,
      "way": 3208,
      "▁confirm": 3209,
      "子供": 3210,
      "ツール": 3211,
      "lang": 3212,
      "中に": 3213,
      "movement": 3214,
      "filename": 3215,
      "リー": 3216,
      "種類": 3217,
      "だと思います": 3218,
      "さて": 3219,
      "時代": 3220,
      "point": 3221,
      "いく": 3222,
      "勝": 3223,
      "▁huge": 3224,
      "エリア": 3225,
      "font": 3226,
      "ci": 3227,
      "▁effici": 3228,
      "▁cross": 3229,
      "▁unit": 3230,
      "広告": 3231,
      "ants": 3232,
      "System": 3233,
      "みたいな": 3234,
      "▁Green": 3235,
      "Although": 3236,
      "▁output": 3237,
      "改善": 3238,
      "となり": 3239,
      "▁Music": 3240,
      "▁java": 3241,
      "▁Develop": 3242,
      "▁Do": 3243,
      "ウ": 3244,
      "▁attack": 3245,
      "di": 3246,
      "アン": 3247,
      "▁note": 3248,
      "成": 3249,
      "HP": 3250,
      "▁institu": 3251,
      "部分": 3252,
      "height": 3253,
      "▁Techn": 3254,
      "▁setting": 3255,
      "category": 3256,
      "▁Le": 3257,
      "▁Get": 3258,
      "▁fall": 3259,
      "▁tempera": 3260,
      "▁race": 3261,
      "必要": 3262,
      "っている": 3263,
      "PS": 3264,
      "Result": 3265,
      "({": 3266,
      "ui": 3267,
      "スタッフ": 3268,
      "▁active": 3269,
      "秋": 3270,
      "▁+=": 3271,
      "argument": 3272,
      "▁allowed": 3273,
      "前の": 3274,
      "雪": 3275,
      "説明": 3276,
      "を持つ": 3277,
      "となった": 3278,
      "▁II": 3279,
      "dvantage": 3280,
      "▁ability": 3281,
      "プ": 3282,
      "が多い": 3283,
      "ac": 3284,
      "▁piece": 3285,
      "▁clients": 3286,
      "もあります": 3287,
      "対象": 3288,
      "そのまま": 3289,
      "▁predict": 3290,
      "▁round": 3291,
      "web": 3292,
      "け": 3293,
      "▁-->": 3294,
      "ができる": 3295,
      "although": 3296,
      "stream": 3297,
      "thousand": 3298,
      "一般": 3299,
      "▁gas": 3300,
      "▁Life": 3301,
      "個人": 3302,
      "向け": 3303,
      "服": 3304,
      "の場合は": 3305,
      "critical": 3306,
      "橋": 3307,
      "▁essenti": 3308,
      "▁claim": 3309,
      "absolute": 3310,
      "▁James": 3311,
      "▁wrote": 3312,
      "流": 3313,
      "uint": 3314,
      "館": 3315,
      "▁format": 3316,
      "▁hands": 3317,
      "purchase": 3318,
      "▁Sunday": 3319,
      "配信": 3320,
      "になっている": 3321,
      "▁equip": 3322,
      "語": 3323,
      "ラン": 3324,
      "メニュー": 3325,
      "▁recomme": 3326,
      "追加": 3327,
      "[\"": 3328,
      "▁box": 3329,
      "ここで": 3330,
      "業界": 3331,
      "version": 3332,
      "②": 3333,
      "教室": 3334,
      "▁attract": 3335,
      "▁largest": 3336,
      "={": 3337,
      "▁nearly": 3338,
      "source": 3339,
      "のでしょうか": 3340,
      "ですか": 3341,
      "▁knew": 3342,
      "自然": 3343,
      "ボ": 3344,
      "プログラム": 3345,
      "▁images": 3346,
      "設計": 3347,
      "▁respond": 3348,
      "▁basis": 3349,
      "ten": 3350,
      "まあ": 3351,
      "projects": 3352,
      "▁listen": 3353,
      "▁du": 3354,
      "sistance": 3355,
      "ですので": 3356,
      "―": 3357,
      "▁growing": 3358,
      "▁Japan": 3359,
      "高校": 3360,
      "ably": 3361,
      "export": 3362,
      "Array": 3363,
      "▁rules": 3364,
      "報告": 3365,
      "▁earlier": 3366,
      "icrosoft": 3367,
      "古": 3368,
      "query": 3369,
      "業者": 3370,
      "▁item": 3371,
      "プレゼント": 3372,
      "▁finally": 3373,
      "文化": 3374,
      "▁Educa": 3375,
      "ヶ月": 3376,
      "consumer": 3377,
      "今まで": 3378,
      "op": 3379,
      "公園": 3380,
      "char": 3381,
      "板": 3382,
      "▁beyond": 3383,
      "head": 3384,
      "▁methods": 3385,
      "▁federal": 3386,
      "玉": 3387,
      "▁owner": 3388,
      "Each": 3389,
      "append": 3390,
      "好き": 3391,
      "▁->": 3392,
      "役": 3393,
      "▁century": 3394,
      "JR": 3395,
      "init": 3396,
      "▁turned": 3397,
      "object": 3398,
      "波": 3399,
      "!\"": 3400,
      "▁gets": 3401,
      "▁door": 3402,
      "▁£": 3403,
      "あります": 3404,
      "){": 3405,
      "During": 3406,
      "distance": 3407,
      "ING": 3408,
      "シー": 3409,
      "そのため": 3410,
      "▁server": 3411,
      "chi": 3412,
      "今日": 3413,
      "▁count": 3414,
      "幅": 3415,
      "bin": 3416,
      "▁vehicle": 3417,
      "°": 3418,
      "袋": 3419,
      "五": 3420,
      "▁blog": 3421,
      "されました": 3422,
      "nities": 3423,
      "connect": 3424,
      "紙": 3425,
      "住所": 3426,
      "der": 3427,
      "犬": 3428,
      "▁How": 3429,
      "ville": 3430,
      "▁Commiss": 3431,
      "▁produce": 3432,
      "App": 3433,
      "compared": 3434,
      "▁invest": 3435,
      "Can": 3436,
      "▁uses": 3437,
      "cc": 3438,
      "収納": 3439,
      "お店": 3440,
      "▁Church": 3441,
      "ゴ": 3442,
      "▁numbers": 3443,
      "Once": 3444,
      "しても": 3445,
      "々": 3446,
      "▁One": 3447,
      "ur": 3448,
      "structur": 3449,
      "と同じ": 3450,
      "しっかり": 3451,
      "}(": 3452,
      "松": 3453,
      "▁spent": 3454,
      "ke": 3455,
      "ことができる": 3456,
      "もある": 3457,
      "Security": 3458,
      "ていた": 3459,
      "どの": 3460,
      "一度": 3461,
      "オリジナル": 3462,
      "\"><": 3463,
      "是非": 3464,
      "ba": 3465,
      "投稿": 3466,
      "▁demonst": 3467,
      "▁weight": 3468,
      "後に": 3469,
      "▁King": 3470,
      "経済": 3471,
      "シート": 3472,
      "ときに": 3473,
      "###": 3474,
      "Element": 3475,
      "フリー": 3476,
      "キー": 3477,
      "▁England": 3478,
      "▁excell": 3479,
      "Date": 3480,
      "検索": 3481,
      "八": 3482,
      "▁reports": 3483,
      "▁obtain": 3484,
      "､": 3485,
      "酒": 3486,
      "light": 3487,
      "なぁ": 3488,
      "▁assess": 3489,
      "»": 3490,
      "▁nice": 3491,
      "▁French": 3492,
      "▁Air": 3493,
      "日の": 3494,
      "ha": 3495,
      "▁charge": 3496,
      "▁passed": 3497,
      "Group": 3498,
      "のこと": 3499,
      "▁society": 3500,
      "▁myself": 3501,
      "daughter": 3502,
      "特別": 3503,
      "楽しい": 3504,
      "割": 3505,
      "角": 3506,
      "じゃない": 3507,
      "ですよ": 3508,
      "▁plant": 3509,
      "▁lines": 3510,
      "Ａ": 3511,
      "ell": 3512,
      "planning": 3513,
      "▁clean": 3514,
      "Status": 3515,
      "そもそも": 3516,
      "不安": 3517,
      "▁demand": 3518,
      "Input": 3519,
      "口コミ": 3520,
      "▁moved": 3521,
      "▁Africa": 3522,
      "mi": 3523,
      "nbsp": 3524,
      "▁wife": 3525,
      "fa": 3526,
      "ダウンロード": 3527,
      "魚": 3528,
      "▁defined": 3529,
      "組織": 3530,
      "local": 3531,
      "メディア": 3532,
      "身": 3533,
      "製": 3534,
      "event": 3535,
      "free": 3536,
      "tors": 3537,
      " ": 3538,
      "▁Paul": 3539,
      "▁El": 3540,
      "練習": 3541,
      "になっています": 3542,
      "▁journal": 3543,
      "action": 3544,
      "▁places": 3545,
      "女子": 3546,
      "▁moving": 3547,
      "▁entry": 3548,
      "▁daily": 3549,
      "お金": 3550,
      "小さな": 3551,
      "Dr": 3552,
      "▁avoid": 3553,
      "ner": 3554,
      "好きな": 3555,
      "強い": 3556,
      "▁Bar": 3557,
      "constant": 3558,
      "▁workers": 3559,
      "produced": 3560,
      "ための": 3561,
      "パソコン": 3562,
      "ni": 3563,
      "ray": 3564,
      "output": 3565,
      "ろ": 3566,
      "▁blood": 3567,
      "▁princip": 3568,
      "▁stand": 3569,
      "こんにちは": 3570,
      "なのに": 3571,
      "ハイ": 3572,
      "▁tools": 3573,
      "可": 3574,
      "と言う": 3575,
      "lambda": 3576,
      "starting": 3577,
      "はありません": 3578,
      "野菜": 3579,
      "▁paid": 3580,
      "▁walk": 3581,
      "▁index": 3582,
      "横": 3583,
      "ワン": 3584,
      "セミナー": 3585,
      "▁served": 3586,
      "することで": 3587,
      "®": 3588,
      "バック": 3589,
      "▁на": 3590,
      "可愛い": 3591,
      "簡単に": 3592,
      "controll": 3593,
      "根": 3594,
      "終了": 3595,
      "テスト": 3596,
      "▁mobile": 3597,
      "▁effort": 3598,
      "▁died": 3599,
      "言葉": 3600,
      "bit": 3601,
      "▁sustain": 3602,
      "▁speed": 3603,
      "▁exactly": 3604,
      "▁deep": 3605,
      "船": 3606,
      "▁patient": 3607,
      "▁seven": 3608,
      "・・": 3609,
      "▁memory": 3610,
      "▁window": 3611,
      "▁Red": 3612,
      "separate": 3613,
      "プラス": 3614,
      "over": 3615,
      "今は": 3616,
      "】【": 3617,
      "▁sort": 3618,
      "▁amazing": 3619,
      "▁quarter": 3620,
      "La": 3621,
      "トレーニング": 3622,
      "漫画": 3623,
      "▁bar": 3624,
      "ng": 3625,
      "章": 3626,
      "スター": 3627,
      "見て": 3628,
      "肌": 3629,
      "市場": 3630,
      "tag": 3631,
      "Thanks": 3632,
      ")\\": 3633,
      "▁cells": 3634,
      "クラス": 3635,
      "絵": 3636,
      "▁voice": 3637,
      "▁Windows": 3638,
      "▁consult": 3639,
      "だって": 3640,
      "作成": 3641,
      "全国": 3642,
      "▁session": 3643,
      "ham": 3644,
      "ばかり": 3645,
      "とともに": 3646,
      "▁fit": 3647,
      "▁Michael": 3648,
      "調整": 3649,
      "加工": 3650,
      "▁Post": 3651,
      "っと": 3652,
      "値": 3653,
      "▁Go": 3654,
      "▁Your": 3655,
      "▁[…]": 3656,
      "アクセス": 3657,
      "コーヒー": 3658,
      "ier": 3659,
      "なる": 3660,
      "編集": 3661,
      "ソ": 3662,
      "▁As": 3663,
      "ropriate": 3664,
      "食事": 3665,
      "ality": 3666,
      "スペース": 3667,
      "させていただき": 3668,
      "▁teams": 3669,
      "Button": 3670,
      "▁If": 3671,
      "けれど": 3672,
      "pt": 3673,
      "？　": 3674,
      "▁eyes": 3675,
      "▁fans": 3676,
      "transfer": 3677,
      "後の": 3678,
      "▁impress": 3679,
      "lo": 3680,
      "大変": 3681,
      "▁notice": 3682,
      "｣": 3683,
      "▁concept": 3684,
      "美味しい": 3685,
      "elements": 3686,
      "ツアー": 3687,
      "キッチン": 3688,
      "update": 3689,
      "楽": 3690,
      "▁fully": 3691,
      "修理": 3692,
      "制作": 3693,
      "▁Program": 3694,
      "▁greater": 3695,
      "▁host": 3696,
      "▁middle": 3697,
      "▁efforts": 3698,
      "論": 3699,
      "Thursday": 3700,
      "声": 3701,
      "mo": 3702,
      "▁/>": 3703,
      "Congress": 3704,
      "▁shared": 3705,
      "▁station": 3706,
      "席": 3707,
      "mathbb": 3708,
      "人に": 3709,
      "▁Manage": 3710,
      "られた": 3711,
      "丁目": 3712,
      "四": 3713,
      "ちゃんと": 3714,
      "月の": 3715,
      "ives": 3716,
      "不動産": 3717,
      "lines": 3718,
      "ya": 3719,
      "check": 3720,
      "Check": 3721,
      "Because": 3722,
      "安い": 3723,
      "std": 3724,
      "Un": 3725,
      "▁commit": 3726,
      "してくれる": 3727,
      "▁stock": 3728,
      "▁typical": 3729,
      "中央": 3730,
      "▁central": 3731,
      "取引": 3732,
      "茶": 3733,
      "骨": 3734,
      "▁Mar": 3735,
      "こういう": 3736,
      "▁feeling": 3737,
      "香": 3738,
      "▁solid": 3739,
      "弾": 3740,
      "▁serve": 3741,
      "▁std": 3742,
      "▁Monday": 3743,
      "▁primary": 3744,
      "parent": 3745,
      "target": 3746,
      "▁j": 3747,
      "成長": 3748,
      "▁leaders": 3749,
      "Last": 3750,
      "▁overall": 3751,
      "work": 3752,
      "そ": 3753,
      "engineer": 3754,
      "ER": 3755,
      "集": 3756,
      "レッスン": 3757,
      "▁exhibit": 3758,
      "▁ex": 3759,
      "▁catch": 3760,
      "▁click": 3761,
      "password": 3762,
      "、『": 3763,
      "ednesday": 3764,
      "だろ": 3765,
      "▁actual": 3766,
      "良": 3767,
      "監督": 3768,
      "▁Road": 3769,
      "それでも": 3770,
      "behavior": 3771,
      "左": 3772,
      "relative": 3773,
      "▁Texas": 3774,
      "送料無料": 3775,
      "タイトル": 3776,
      "Well": 3777,
      "▁So": 3778,
      "▁hair": 3779,
      "発": 3780,
      "ドル": 3781,
      "district": 3782,
      "encourag": 3783,
      "森": 3784,
      "Minister": 3785,
      "だな": 3786,
      "総": 3787,
      "и": 3788,
      "\"]": 3789,
      "じ": 3790,
      "連": 3791,
      "AI": 3792,
      "会場": 3793,
      "スキル": 3794,
      "いない": 3795,
      "学生": 3796,
      "emporary": 3797,
      "以下の": 3798,
      "主": 3799,
      "▁Jan": 3800,
      "テーブル": 3801,
      "ブルー": 3802,
      "strategy": 3803,
      "▁annual": 3804,
      "こちらの": 3805,
      "ok": 3806,
      "▁wait": 3807,
      "指導": 3808,
      "▁micro": 3809,
      "マスク": 3810,
      "とにかく": 3811,
      "▁scient": 3812,
      "インターネット": 3813,
      "▁firm": 3814,
      "▁skin": 3815,
      "保険": 3816,
      "たち": 3817,
      "合": 3818,
      "ttribute": 3819,
      "意識": 3820,
      "▁First": 3821,
      "ri": 3822,
      "準備": 3823,
      "の方": 3824,
      "▁foreign": 3825,
      "▁Best": 3826,
      "▁looked": 3827,
      "which": 3828,
      "くん": 3829,
      "▁(!": 3830,
      "しており": 3831,
      "▁fight": 3832,
      "▁inform": 3833,
      "千": 3834,
      "ロー": 3835,
      "▁press": 3836,
      "のない": 3837,
      "▁cancer": 3838,
      "ユーザー": 3839,
      "いや": 3840,
      "Mr": 3841,
      "グッズ": 3842,
      "▁bank": 3843,
      "▁floor": 3844,
      "Controll": 3845,
      "▁confid": 3846,
      "キャラ": 3847,
      "▁addit": 3848,
      "を見る": 3849,
      "冬": 3850,
      "nt": 3851,
      "▁Is": 3852,
      "ina": 3853,
      "▁para": 3854,
      "True": 3855,
      "運営": 3856,
      "攻撃": 3857,
      "門": 3858,
      "Don": 3859,
      "低": 3860,
      "日本語": 3861,
      "xxxx": 3862,
      "ung": 3863,
      "▁star": 3864,
      "▁IN": 3865,
      "デジタル": 3866,
      "▁sale": 3867,
      "▁PM": 3868,
      "死": 3869,
      "▁finish": 3870,
      "▁church": 3871,
      "identify": 3872,
      "があって": 3873,
      "show": 3874,
      "・・・。": 3875,
      "▁reduce": 3876,
      "すべての": 3877,
      "▁length": 3878,
      "float": 3879,
      "break": 3880,
      "タグ": 3881,
      "▁climate": 3882,
      "早く": 3883,
      "▁employ": 3884,
      "District": 3885,
      "相": 3886,
      "リンク": 3887,
      "▁Press": 3888,
      "レース": 3889,
      "希望": 3890,
      "校": 3891,
      "▁src": 3892,
      "context": 3893,
      "を使った": 3894,
      "▁George": 3895,
      "▁Free": 3896,
      "▁letter": 3897,
      "ですから": 3898,
      "先日": 3899,
      "struct": 3900,
      "解説": 3901,
      "週": 3902,
      "▁populat": 3903,
      "▁attend": 3904,
      "\").": 3905,
      "級": 3906,
      "▁supply": 3907,
      "▁opening": 3908,
      "▁alone": 3909,
      "Twitter": 3910,
      "研修": 3911,
      "業": 3912,
      "level": 3913,
      "里": 3914,
      "▁USA": 3915,
      "総合": 3916,
      "▁eye": 3917,
      "▁automat": 3918,
      "ホ": 3919,
      "▁income": 3920,
      "▁monitor": 3921,
      "バイク": 3922,
      "銀行": 3923,
      "▁Chinese": 3924,
      "▁club": 3925,
      "親": 3926,
      "sequence": 3927,
      "negative": 3928,
      "▁organis": 3929,
      "▁What": 3930,
      "▁economy": 3931,
      "▁replace": 3932,
      "思い": 3933,
      "費用": 3934,
      "service": 3935,
      "秒": 3936,
      "クラブ": 3937,
      "write": 3938,
      "シーズン": 3939,
      "ff": 3940,
      "▁Bank": 3941,
      "▁van": 3942,
      "▁depart": 3943,
      "▁OR": 3944,
      "じゃ": 3945,
      "▁Club": 3946,
      "Christma": 3947,
      "dev": 3948,
      "｢": 3949,
      "お客様": 3950,
      "観光": 3951,
      "▁descrip": 3952,
      "▁wall": 3953,
      "▁alterna": 3954,
      "DVD": 3955,
      "ologies": 3956,
      "住宅": 3957,
      "▁sea": 3958,
      "long": 3959,
      "王": 3960,
      "科": 3961,
      "provider": 3962,
      "audience": 3963,
      "benefits": 3964,
      "stances": 3965,
      "岩": 3966,
      "もあり": 3967,
      "上の": 3968,
      "▁Hall": 3969,
      "油": 3970,
      "タイ": 3971,
      "旧": 3972,
      "以上の": 3973,
      "▁mass": 3974,
      "能力": 3975,
      "football": 3976,
      "Internet": 3977,
      "タイム": 3978,
      "ファッション": 3979,
      "present": 3980,
      "contains": 3981,
      "グリーン": 3982,
      "トイレ": 3983,
      "新たな": 3984,
      "サロン": 3985,
      "ransform": 3986,
      "Stream": 3987,
      "▁Project": 3988,
      "OS": 3989,
      "ヒ": 3990,
      "▁Can": 3991,
      "さまざまな": 3992,
      "おり": 3993,
      "公": 3994,
      "時期": 3995,
      "制": 3996,
      "Other": 3997,
      "移動": 3998,
      "介護": 3999,
      "}_": 4000,
      "▁storage": 4001,
      "悪": 4002,
      "食品": 4003,
      "と一緒に": 4004,
      "▁launch": 4005,
      "旅": 4006,
      "▁xxxx": 4007,
      "Photo": 4008,
      "down": 4009,
      "▁join": 4010,
      "false": 4011,
      "▁counter": 4012,
      "▁estimat": 4013,
      "からは": 4014,
      "server": 4015,
      "展開": 4016,
      "久": 4017,
      "今後": 4018,
      "理解": 4019,
      "クリスマス": 4020,
      "finitely": 4021,
      "Page": 4022,
      "surround": 4023,
      "▁CO": 4024,
      "▁sites": 4025,
      "terested": 4026,
      "▁maybe": 4027,
      "モノ": 4028,
      "▁helped": 4029,
      "try": 4030,
      "nted": 4031,
      "put": 4032,
      "事件": 4033,
      "▁vs": 4034,
      "▁pic": 4035,
      "}_{": 4036,
      "▁scale": 4037,
      "テーマ": 4038,
      "安全": 4039,
      "▁pain": 4040,
      "▁stream": 4041,
      "ミニ": 4042,
      "ど": 4043,
      "東京都": 4044,
      "となっています": 4045,
      "▁hot": 4046,
      "▁affect": 4047,
      "ｰ": 4048,
      "gl": 4049,
      "▁rule": 4050,
      "ver": 4051,
      "▁trip": 4052,
      "堂": 4053,
      "担当": 4054,
      "FX": 4055,
      "▁tool": 4056,
      "▁scene": 4057,
      "straight": 4058,
      "---": 4059,
      "lin": 4060,
      "草": 4061,
      "右": 4062,
      "Posted": 4063,
      "▁ten": 4064,
      "Home": 4065,
      "generate": 4066,
      "args": 4067,
      "nstagram": 4068,
      "していく": 4069,
      "令和": 4070,
      "結構": 4071,
      "志": 4072,
      "▁larger": 4073,
      "▁remains": 4074,
      "ak": 4075,
      "▁border": 4076,
      "▁spread": 4077,
      "分析": 4078,
      "▁grand": 4079,
      "柄": 4080,
      "大人": 4081,
      "▁print": 4082,
      "会員": 4083,
      "▁feet": 4084,
      "▁devices": 4085,
      "文字": 4086,
      "操作": 4087,
      "だったので": 4088,
      "but": 4089,
      "ga": 4090,
      "ここ": 4091,
      "Another": 4092,
      "変化": 4093,
      "▁pages": 4094,
      "士": 4095,
      "▁France": 4096,
      "▁stuff": 4097,
      "付け": 4098,
      "通信": 4099,
      "出来る": 4100,
      "▁Data": 4101,
      "自": 4102,
      "▁wish": 4103,
      "▁task": 4104,
      "美しい": 4105,
      "▁rates": 4106,
      "ハウス": 4107,
      "▁trust": 4108,
      "Action": 4109,
      "▁engage": 4110,
      "beta": 4111,
      "▁thus": 4112,
      "NO": 4113,
      "Number": 4114,
      "Content": 4115,
      "▁à": 4116,
      "powerful": 4117,
      "dy": 4118,
      "にとって": 4119,
      "rated": 4120,
      "昭和": 4121,
      "▁height": 4122,
      "ときは": 4123,
      "load": 4124,
      "msg": 4125,
      "オイル": 4126,
      "▁lack": 4127,
      "▁tour": 4128,
      "焼き": 4129,
      "▁Review": 4130,
      "七": 4131,
      "▁perhaps": 4132,
      "Base": 4133,
      "▁hour": 4134,
      "ッ": 4135,
      "▁highest": 4136,
      "▁goals": 4137,
      "クリニック": 4138,
      "▁virtual": 4139,
      "display": 4140,
      "リン": 4141,
      "PDF": 4142,
      "パック": 4143,
      "▁spend": 4144,
      "xecutive": 4145,
      "auto": 4146,
      "▁failed": 4147,
      "▁shot": 4148,
      "だよ": 4149,
      "ial": 4150,
      "ベ": 4151,
      "マンション": 4152,
      "気持ち": 4153,
      "that": 4154,
      "釣り": 4155,
      "⇒": 4156,
      "Point": 4157,
      "led": 4158,
      "Yes": 4159,
      "▁wants": 4160,
      "Click": 4161,
      "募集": 4162,
      "裏": 4163,
      "発売": 4164,
      "select": 4165,
      "DB": 4166,
      "▁radio": 4167,
      "graph": 4168,
      "アート": 4169,
      "空間": 4170,
      "▁pick": 4171,
      "▁grow": 4172,
      "ボール": 4173,
      "google": 4174,
      "！！": 4175,
      "ホワイト": 4176,
      "room": 4177,
      "があれば": 4178,
      "▁App": 4179,
      "search": 4180,
      "Fi": 4181,
      "湯": 4182,
      "her": 4183,
      "ip": 4184,
      "くる": 4185,
      "このような": 4186,
      "感想": 4187,
      "▁и": 4188,
      "capacity": 4189,
      "▁vote": 4190,
      "thinking": 4191,
      "ロック": 4192,
      "一部": 4193,
      "build": 4194,
      "違う": 4195,
      "▁touch": 4196,
      "▁legisla": 4197,
      "find": 4198,
      "マイ": 4199,
      "必要があります": 4200,
      "尾": 4201,
      "ex": 4202,
      "▁useful": 4203,
      "夫": 4204,
      "happened": 4205,
      "▁Journal": 4206,
      "▁weekend": 4207,
      "has": 4208,
      "を作る": 4209,
      "CO": 4210,
      "▁Market": 4211,
      "使う": 4212,
      "▁Year": 4213,
      "у": 4214,
      "吉": 4215,
      "ことに": 4216,
      "▁drug": 4217,
      "▁Twitter": 4218,
      "css": 4219,
      "以外の": 4220,
      "ki": 4221,
      "▁artist": 4222,
      "gt": 4223,
      "コンテンツ": 4224,
      "ns": 4225,
      "▁manager": 4226,
      "賞": 4227,
      "仕様": 4228,
      "かわいい": 4229,
      "▁River": 4230,
      "予想": 4231,
      "wood": 4232,
      "｡": 4233,
      "▁Star": 4234,
      "▁miles": 4235,
      "▁Open": 4236,
      "▁Society": 4237,
      "周年": 4238,
      "▁bill": 4239,
      "ことも": 4240,
      "▁sports": 4241,
      "園": 4242,
      "▁League": 4243,
      "▁Ma": 4244,
      "▁Bill": 4245,
      "クリーム": 4246,
      "全て": 4247,
      "▁reasons": 4248,
      "▁talking": 4249,
      "▁sector": 4250,
      "ワイン": 4251,
      "mer": 4252,
      "年齢": 4253,
      "▁blue": 4254,
      "これで": 4255,
      "▁steps": 4256,
      "すぎる": 4257,
      "▁remove": 4258,
      "沖縄": 4259,
      "first": 4260,
      "▁offered": 4261,
      "▁smart": 4262,
      "settings": 4263,
      "▁AND": 4264,
      "▁names": 4265,
      "英": 4266,
      "▁convert": 4267,
      "←": 4268,
      "▁advance": 4269,
      "信": 4270,
      "▁plus": 4271,
      "しよう": 4272,
      "tes": 4273,
      "▁width": 4274,
      "mission": 4275,
      "relevant": 4276,
      "product": 4277,
      "▁testing": 4278,
      "ti": 4279,
      "ますが": 4280,
      "mponents": 4281,
      "▁List": 4282,
      "▁master": 4283,
      "軍": 4284,
      "沢": 4285,
      "terpret": 4286,
      "になると": 4287,
      "ベスト": 4288,
      "Thank": 4289,
      "神社": 4290,
      "▁appreci": 4291,
      "▁eight": 4292,
      "▁ahead": 4293,
      "▁mission": 4294,
      "結局": 4295,
      "▁COVID": 4296,
      "tainment": 4297,
      "null": 4298,
      "葉": 4299,
      "恋愛": 4300,
      "映像": 4301,
      "fluence": 4302,
      "電気": 4303,
      "▁Union": 4304,
      "意味": 4305,
      "Go": 4306,
      "proposed": 4307,
      "今の": 4308,
      "▁Media": 4309,
      "▁parties": 4310,
      "▁Party": 4311,
      "Token": 4312,
      "行く": 4313,
      "遊び": 4314,
      "ストレス": 4315,
      "fig": 4316,
      "提供": 4317,
      "構造": 4318,
      "scale": 4319,
      "▁Tuesday": 4320,
      "▁rock": 4321,
      "ivity": 4322,
      "Function": 4323,
      "▁figure": 4324,
      "致します": 4325,
      "▁Mark": 4326,
      "▁classic": 4327,
      "▁Indian": 4328,
      "next": 4329,
      "▁handle": 4330,
      "▁node": 4331,
      "▁none": 4332,
      "モード": 4333,
      "プレイ": 4334,
      "ふ": 4335,
      "creation": 4336,
      "リア": 4337,
      "各種": 4338,
      "ab": 4339,
      "▁journey": 4340,
      "*/": 4341,
      "Document": 4342,
      "▁fresh": 4343,
      "脱毛": 4344,
      "▁sold": 4345,
      "上で": 4346,
      "記録": 4347,
      "面白い": 4348,
      "▁Power": 4349,
      "phi": 4350,
      "ましたが": 4351,
      "▁helps": 4352,
      "ものの": 4353,
      "これを": 4354,
      "ランチ": 4355,
      "last": 4356,
      "$\\": 4357,
      "ﾟ": 4358,
      "enced": 4359,
      "之": 4360,
      "通常": 4361,
      "((": 4362,
      "mail": 4363,
      "非": 4364,
      "▁Time": 4365,
      "▁score": 4366,
      "出演": 4367,
      "▁views": 4368,
      "傷": 4369,
      "▁History": 4370,
      "creative": 4371,
      "PR": 4372,
      "▁jobs": 4373,
      "Builder": 4374,
      "▁With": 4375,
      "江": 4376,
      "かもしれない": 4377,
      "▁finding": 4378,
      "ger": 4379,
      "ギ": 4380,
      "悪い": 4381,
      "▁engine": 4382,
      "全く": 4383,
      "▁dark": 4384,
      "media": 4385,
      "$$": 4386,
      "病": 4387,
      "▁package": 4388,
      "▁z": 4389,
      "カン": 4390,
      "comments": 4391,
      "かつ": 4392,
      "必要な": 4393,
      "store": 4394,
      "▁records": 4395,
      "壁": 4396,
      "お問い合わせ": 4397,
      "▁claims": 4398,
      "院": 4399,
      "​": 4400,
      "未": 4401,
      "駐車場": 4402,
      "▁obvious": 4403,
      "座": 4404,
      "シン": 4405,
      "Over": 4406,
      "最後に": 4407,
      "買取": 4408,
      "well": 4409,
      "fi": 4410,
      "▁African": 4411,
      "とりあえず": 4412,
      "▁char": 4413,
      "寝": 4414,
      "ny": 4415,
      "Con": 4416,
      "▁Award": 4417,
      "▁Un": 4418,
      "そうな": 4419,
      "▁damage": 4420,
      "sigma": 4421,
      "資格": 4422,
      "staurant": 4423,
      "▁TO": 4424,
      "▁ones": 4425,
      "掲載": 4426,
      "▁Class": 4427,
      "がありました": 4428,
      "board": 4429,
      "今日の": 4430,
      "presence": 4431,
      "particip": 4432,
      "Connect": 4433,
      "まぁ": 4434,
      "林": 4435,
      "字": 4436,
      "目的": 4437,
      "欲しい": 4438,
      "別の": 4439,
      "Entity": 4440,
      "これまで": 4441,
      "資料": 4442,
      "graphy": 4443,
      "▁Social": 4444,
      "なんで": 4445,
      "None": 4446,
      "入れ": 4447,
      "▁prices": 4448,
      "dustrial": 4449,
      "▁budget": 4450,
      "リスト": 4451,
      "類": 4452,
      "Republic": 4453,
      "日本人": 4454,
      "▁Smith": 4455,
      "hat": 4456,
      "歴史": 4457,
      "最後の": 4458,
      "▁Bay": 4459,
      "にする": 4460,
      "僕は": 4461,
      "の中に": 4462,
      "人気の": 4463,
      "費": 4464,
      "側": 4465,
      "国内": 4466,
      "▁gone": 4467,
      "▁Museum": 4468,
      "▁Peter": 4469,
      "ポ": 4470,
      "relation": 4471,
      "▁posted": 4472,
      "審査": 4473,
      "▁William": 4474,
      "▁begin": 4475,
      "▁===": 4476,
      "dd": 4477,
      "Note": 4478,
      "ana": 4479,
      "を使う": 4480,
      "すべて": 4481,
      "バンド": 4482,
      "programs": 4483,
      "▁speak": 4484,
      "分の": 4485,
      "commend": 4486,
      "▁Florida": 4487,
      "▁dedicat": 4488,
      "アル": 4489,
      "call": 4490,
      "法人": 4491,
      "切り": 4492,
      "▁species": 4493,
      "▁None": 4494,
      "Any": 4495,
      "pp": 4496,
      "process": 4497,
      "header": 4498,
      "home": 4499,
      "課題": 4500,
      "スタート": 4501,
      "きっと": 4502,
      "delta": 4503,
      "樹": 4504,
      "▁parent": 4505,
      "計算": 4506,
      "。　": 4507,
      "▁couldn": 4508,
      "▁funding": 4509,
      "これらの": 4510,
      "▁award": 4511,
      "UP": 4512,
      "▁u": 4513,
      "気になる": 4514,
      "Create": 4515,
      "程度": 4516,
      "というか": 4517,
      "▁calls": 4518,
      "▁mode": 4519,
      "が多く": 4520,
      "Paramet": 4521,
      "▁detect": 4522,
      "IP": 4523,
      "それぞれ": 4524,
      "▁reality": 4525,
      "hallenge": 4526,
      "▁Island": 4527,
      "求人": 4528,
      "ボタン": 4529,
      "を中心に": 4530,
      "majority": 4531,
      "転職": 4532,
      "uri": 4533,
      "シュ": 4534,
      "人生": 4535,
      "End": 4536,
      "conflict": 4537,
      "Override": 4538,
      "州": 4539,
      "▁Times": 4540,
      "額": 4541,
      "▁factors": 4542,
      "ガン": 4543,
      "changing": 4544,
      "▁bottom": 4545,
      "製造": 4546,
      "Two": 4547,
      "describe": 4548,
      "doc": 4549,
      "Back": 4550,
      "番組": 4551,
      "Query": 4552,
      "↓": 4553,
      "▁mid": 4554,
      "▁($": 4555,
      "followed": 4556,
      "д": 4557,
      "ラーメン": 4558,
      "シーン": 4559,
      "最も": 4560,
      "_\\": 4561,
      "び": 4562,
      "ft": 4563,
      "ration": 4564,
      "試合": 4565,
      "選択": 4566,
      "▁heat": 4567,
      "▁gold": 4568,
      "リスク": 4569,
      "表現": 4570,
      "commit": 4571,
      "option": 4572,
      "安心": 4573,
      "graduate": 4574,
      "FF": 4575,
      "occasion": 4576,
      "▁biggest": 4577,
      "are": 4578,
      "番号": 4579,
      "author": 4580,
      "▁factor": 4581,
      "finished": 4582,
      "あるいは": 4583,
      "Method": 4584,
      "lgorithm": 4585,
      "▁closed": 4586,
      "▁frame": 4587,
      "採用": 4588,
      "▁novel": 4589,
      "▁loved": 4590,
      "込み": 4591,
      "メリット": 4592,
      "▁Israel": 4593,
      "sec": 4594,
      "internet": 4595,
      "pos": 4596,
      "▁res": 4597,
      "設備": 4598,
      "読み": 4599,
      "ard": 4600,
      "▁na": 4601,
      "▁payment": 4602,
      "▁explore": 4603,
      "star": 4604,
      "剤": 4605,
      "images": 4606,
      "figure": 4607,
      "治": 4608,
      "簡単": 4609,
      "ガス": 4610,
      "Japanese": 4611,
      "申請": 4612,
      "地方": 4613,
      "シャ": 4614,
      "小学校": 4615,
      "ネットワーク": 4616,
      "▁sources": 4617,
      "てしまう": 4618,
      "▁surpris": 4619,
      "✨": 4620,
      "itiative": 4621,
      "基準": 4622,
      "▁truly": 4623,
      "横浜": 4624,
      "物語": 4625,
      "▁showed": 4626,
      "決定": 4627,
      "あった": 4628,
      "appeared": 4629,
      "産業": 4630,
      "mathbf": 4631,
      "root": 4632,
      "istic": 4633,
      "▁trial": 4634,
      "▁becomes": 4635,
      "最高": 4636,
      "▁emotion": 4637,
      "清": 4638,
      "ひ": 4639,
      "▁Book": 4640,
      "▁En": 4641,
      "mp": 4642,
      "▁\\\\": 4643,
      "ionships": 4644,
      "Options": 4645,
      "パーツ": 4646,
      "電": 4647,
      "内の": 4648,
      "画面": 4649,
      "▁core": 4650,
      "団体": 4651,
      "▁opened": 4652,
      "▁flow": 4653,
      "exchange": 4654,
      "直接": 4655,
      "book": 4656,
      "ru": 4657,
      "導入": 4658,
      "ique": 4659,
      "Handler": 4660,
      "すでに": 4661,
      "戸": 4662,
      "▁brain": 4663,
      "▁failure": 4664,
      "number": 4665,
      "▁},": 4666,
      "stars": 4667,
      "してきた": 4668,
      "SNS": 4669,
      "Open": 4670,
      "Log": 4671,
      "ey": 4672,
      "▁tree": 4673,
      "(&": 4674,
      "▁Founda": 4675,
      "はず": 4676,
      "▁Car": 4677,
      "本体": 4678,
      "▁extends": 4679,
      "▁quick": 4680,
      "確かに": 4681,
      "▁camera": 4682,
      "に合わせて": 4683,
      "▁•": 4684,
      "▁actions": 4685,
      "自転車": 4686,
      "^{\\": 4687,
      "ino": 4688,
      "利": 4689,
      "sa": 4690,
      "offering": 4691,
      "鉄": 4692,
      "articles": 4693,
      "module": 4694,
      "pository": 4695,
      "ほぼ": 4696,
      "接続": 4697,
      "レストラン": 4698,
      "▁opinion": 4699,
      "▁forms": 4700,
      "相手": 4701,
      "▁Profess": 4702,
      "als": 4703,
      "Script": 4704,
      "▁advice": 4705,
      "exercise": 4706,
      "▁thanks": 4707,
      "red": 4708,
      "▁girl": 4709,
      "▁cool": 4710,
      "かもしれませんが": 4711,
      "保護": 4712,
      "▁channel": 4713,
      "エネルギー": 4714,
      "事故": 4715,
      "に行く": 4716,
      "▁sample": 4717,
      "鳥": 4718,
      "日々": 4719,
      "レシピ": 4720,
      "耳": 4721,
      "枠": 4722,
      "schedule": 4723,
      "teaching": 4724,
      "▁Central": 4725,
      "指定": 4726,
      "<!--": 4727,
      "▁kept": 4728,
      "ホール": 4729,
      "\"),": 4730,
      "逆に": 4731,
      "実施": 4732,
      "ター": 4733,
      "▁procedu": 4734,
      "▁par": 4735,
      "▁origin": 4736,
      "▁shape": 4737,
      "push": 4738,
      "▁appears": 4739,
      "▁afford": 4740,
      "▁caused": 4741,
      "Today": 4742,
      "▁valid": 4743,
      "master": 4744,
      "▁cash": 4745,
      "代表": 4746,
      "素敵な": 4747,
      "▁evaluat": 4748,
      "Like": 4749,
      "Collect": 4750,
      "Canadian": 4751,
      "ペット": 4752,
      "ommunity": 4753,
      "▁senior": 4754,
      "▁learned": 4755,
      "ek": 4756,
      "env": 4757,
      "ぐ": 4758,
      "質": 4759,
      "pdf": 4760,
      "▁songs": 4761,
      "▁accord": 4762,
      "まだまだ": 4763,
      "▁killed": 4764,
      "bf": 4765,
      "▁dead": 4766,
      "なども": 4767,
      "▁sell": 4768,
      "Ｂ": 4769,
      "それぞれの": 4770,
      "▁Network": 4771,
      "注文": 4772,
      "hr": 4773,
      "であった": 4774,
      "新規": 4775,
      "記": 4776,
      "なんと": 4777,
      "▁с": 4778,
      "靴": 4779,
      "会議": 4780,
      "policies": 4781,
      "対": 4782,
      "▁Super": 4783,
      "材料": 4784,
      "ii": 4785,
      "週間": 4786,
      "コミュニケーショ": 4787,
      "パワー": 4788,
      "▁husband": 4789,
      "▁German": 4790,
      "ぎ": 4791,
      "以前": 4792,
      "icon": 4793,
      "レス": 4794,
      "増": 4795,
      "Follow": 4796,
      "授業": 4797,
      "ごとに": 4798,
      "名古屋": 4799,
      "みたい": 4800,
      "▁Robert": 4801,
      "mergency": 4802,
      "子ども": 4803,
      "SS": 4804,
      "arrow": 4805,
      "存在": 4806,
      "▁produc": 4807,
      "delivery": 4808,
      "あれ": 4809,
      "はもちろん": 4810,
      "▁earth": 4811,
      "Both": 4812,
      "母": 4813,
      "epsilon": 4814,
      "▁toward": 4815,
      "とする": 4816,
      "させて": 4817,
      "ところで": 4818,
      "Bar": 4819,
      "▁Big": 4820,
      "▁village": 4821,
      "▁artists": 4822,
      "bo": 4823,
      "▁tests": 4824,
      "▁classes": 4825,
      "▁Informa": 4826,
      "ひと": 4827,
      "▁collabo": 4828,
      "再生": 4829,
      "▁Russian": 4830,
      "メンバー": 4831,
      "Line": 4832,
      "更に": 4833,
      "Current": 4834,
      "義": 4835,
      "academic": 4836,
      "建築": 4837,
      "chemical": 4838,
      "スクール": 4839,
      "phone": 4840,
      "▁Di": 4841,
      "▁photos": 4842,
      "▁instruc": 4843,
      "差": 4844,
      "リフォーム": 4845,
      "レポート": 4846,
      "▁vision": 4847,
      "▁balance": 4848,
      "ステージ": 4849,
      "へと": 4850,
      "買い": 4851,
      "▁famous": 4852,
      "Before": 4853,
      "カレー": 4854,
      "▁despite": 4855,
      "半": 4856,
      "Instance": 4857,
      "lt": 4858,
      "協会": 4859,
      "▁spot": 4860,
      "token": 4861,
      "}^": 4862,
      "さま": 4863,
      "史": 4864,
      "ここまで": 4865,
      "▁helping": 4866,
      "Update": 4867,
      "Children": 4868,
      "El": 4869,
      "時計": 4870,
      "を含む": 4871,
      "負担": 4872,
      "次に": 4873,
      "▁[]": 4874,
      "部屋": 4875,
      "現在の": 4876,
      "о": 4877,
      "▁poor": 4878,
      "民": 4879,
      "▁train": 4880,
      "©": 4881,
      "ah": 4882,
      "布": 4883,
      "▁Great": 4884,
      "border": 4885,
      "坂": 4886,
      "勤務": 4887,
      "Descript": 4888,
      "AS": 4889,
      "となりました": 4890,
      "為": 4891,
      "gamma": 4892,
      "▁Global": 4893,
      "計": 4894,
      "▁von": 4895,
      "引き": 4896,
      "キャラクター": 4897,
      "▁seeing": 4898,
      "▁da": 4899,
      "▁transit": 4900,
      "▁theory": 4901,
      "▁runs": 4902,
      "権": 4903,
      "症状": 4904,
      "▁neighbo": 4905,
      "encies": 4906,
      "programm": 4907,
      "のだ": 4908,
      "在": 4909,
      "order": 4910,
      "▁Germany": 4911,
      "car": 4912,
      "▁row": 4913,
      "局": 4914,
      "▁funds": 4915,
      "はない": 4916,
      "▁visual": 4917,
      "▁Love": 4918,
      "Call": 4919,
      "実際": 4920,
      "▁fields": 4921,
      "つき": 4922,
      "武": 4923,
      "▁fair": 4924,
      "常に": 4925,
      "知識": 4926,
      "Where": 4927,
      "▁applied": 4928,
      "▁More": 4929,
      "▁adding": 4930,
      "出し": 4931,
      "▁hotel": 4932,
      "▁raised": 4933,
      "れる": 4934,
      "どうしても": 4935,
      "friendly": 4936,
      "▁easier": 4937,
      "kin": 4938,
      "六": 4939,
      "福": 4940,
      "心配": 4941,
      "▁str": 4942,
      "▁truth": 4943,
      "運用": 4944,
      "ultimate": 4945,
      "両": 4946,
      "に関しては": 4947,
      "こちらは": 4948,
      "izing": 4949,
      "YouTube": 4950,
      "▁Brown": 4951,
      "▁healthy": 4952,
      "margin": 4953,
      "過去": 4954,
      "▁Earth": 4955,
      "weight": 4956,
      "オン": 4957,
      "obj": 4958,
      "identity": 4959,
      "▁north": 4960,
      "筋": 4961,
      "事務所": 4962,
      "早": 4963,
      "bilities": 4964,
      "▁Los": 4965,
      "いただきました": 4966,
      "やって": 4967,
      "▁Apple": 4968,
      "THE": 4969,
      "Wikipedi": 4970,
      "▁older": 4971,
      "▁Mac": 4972,
      "土地": 4973,
      "jpg": 4974,
      "▁illustr": 4975,
      "ぶ": 4976,
      "▁ball": 4977,
      "ずに": 4978,
      "▁committ": 4979,
      "原因": 4980,
      "を持って": 4981,
      "▁weather": 4982,
      "intellig": 4983,
      "自由": 4984,
      "▁Series": 4985,
      "知": 4986,
      "キャリア": 4987,
      "条": 4988,
      "cal": 4989,
      "cy": 4990,
      "▁button": 4991,
      "県": 4992,
      "都": 4993,
      "▁shop": 4994,
      "▁Austral": 4995,
      "ans": 4996,
      "▁clearly": 4997,
      "▁links": 4998,
      "③": 4999,
      "路": 5000,
      "▁forces": 5001,
      "に向けて": 5002,
      "▁joined": 5003,
      "Location": 5004,
      "ado": 5005,
      "▁officer": 5006,
      "きました": 5007,
      "オフィス": 5008,
      "▁library": 5009,
      "Start": 5010,
      "からです": 5011,
      "保存": 5012,
      "食べ": 5013,
      "ガラス": 5014,
      "などが": 5015,
      "you": 5016,
      "params": 5017,
      "￥": 5018,
      "Box": 5019,
      "▁propert": 5020,
      "障害": 5021,
      "Version": 5022,
      "external": 5023,
      "ジャケット": 5024,
      "presents": 5025,
      "と思った": 5026,
      "▁heavy": 5027,
      "▁Russia": 5028,
      "email": 5029,
      "site": 5030,
      "印象": 5031,
      "▁purchas": 5032,
      "いろいろ": 5033,
      "▁Vol": 5034,
      "嬉しい": 5035,
      ")]": 5036,
      "▁Rights": 5037,
      "]);": 5038,
      "▁follows": 5039,
      "エル": 5040,
      "入力": 5041,
      "▁carry": 5042,
      "Android": 5043,
      "criminal": 5044,
      "時には": 5045,
      "名無し": 5046,
      "▁column": 5047,
      "ada": 5048,
      "ベッド": 5049,
      "news": 5050,
      "▁placed": 5051,
      "host": 5052,
      "街": 5053,
      "を見": 5054,
      "ise": 5055,
      "▁peace": 5056,
      "すごく": 5057,
      "▁passion": 5058,
      "RE": 5059,
      "していました": 5060,
      "▁Water": 5061,
      "施術": 5062,
      "violence": 5063,
      "▁reached": 5064,
      "自己": 5065,
      "Ｓ": 5066,
      "ory": 5067,
      "日間": 5068,
      "iques": 5069,
      "▁traffic": 5070,
      "汗": 5071,
      "ストーリー": 5072,
      "▁provis": 5073,
      "▁laws": 5074,
      "▁Human": 5075,
      "docs": 5076,
      "part": 5077,
      "パンツ": 5078,
      "ペ": 5079,
      "novation": 5080,
      "▁battle": 5081,
      "敵": 5082,
      "判断": 5083,
      "何も": 5084,
      "▁driving": 5085,
      "雲": 5086,
      "持ち": 5087,
      "▁NOT": 5088,
      "便": 5089,
      "can": 5090,
      "素晴らしい": 5091,
      "幸せ": 5092,
      "加": 5093,
      "pa": 5094,
      "雰囲気": 5095,
      "ベル": 5096,
      "▁sleep": 5097,
      "▁writer": 5098,
      "成分": 5099,
      "牛": 5100,
      "スト": 5101,
      "About": 5102,
      "エン": 5103,
      "coverage": 5104,
      "ships": 5105,
      "ec": 5106,
      "当然": 5107,
      "▁expand": 5108,
      "▁Lord": 5109,
      "▁driver": 5110,
      "▁cat": 5111,
      "使える": 5112,
      "GO": 5113,
      "ホームページ": 5114,
      "▁pattern": 5115,
      "クリア": 5116,
      "▁den": 5117,
      "かどうか": 5118,
      "▁Am": 5119,
      "使い": 5120,
      "全部": 5121,
      "らない": 5122,
      "▁Amazon": 5123,
      "ó": 5124,
      "nie": 5125,
      "▁whom": 5126,
      "▁appoint": 5127,
      "++": 5128,
      "ho": 5129,
      "までの": 5130,
      "▁psych": 5131,
      "▁fan": 5132,
      "▁Lake": 5133,
      "IN": 5134,
      "▁aren": 5135,
      "Part": 5136,
      "日から": 5137,
      "▁Design": 5138,
      "本日": 5139,
      "金額": 5140,
      "blog": 5141,
      "Engineer": 5142,
      "▁stress": 5143,
      "ており": 5144,
      "ルーム": 5145,
      "ボックス": 5146,
      "があるので": 5147,
      "▁returns": 5148,
      "Me": 5149,
      "▁brother": 5150,
      "にくい": 5151,
      "filter": 5152,
      "が高い": 5153,
      "幸": 5154,
      "動き": 5155,
      "雄": 5156,
      "▁agreed": 5157,
      "▁episode": 5158,
      "▁showing": 5159,
      "キャンプ": 5160,
      "▁Women": 5161,
      "ワ": 5162,
      "ON": 5163,
      "Apple": 5164,
      "受付": 5165,
      "クレジットカード": 5166,
      "認定": 5167,
      "▁appro": 5168,
      "んですが": 5169,
      "▁missing": 5170,
      "ific": 5171,
      "未来": 5172,
      "▁AM": 5173,
      "楽しく": 5174,
      "基本": 5175,
      "▁onto": 5176,
      "town": 5177,
      "ママ": 5178,
      "WEB": 5179,
      "術": 5180,
      "▁Francis": 5181,
      "展": 5182,
      "▁prepar": 5183,
      "▁foot": 5184,
      "IC": 5185,
      "チャ": 5186,
      "ford": 5187,
      "ze": 5188,
      "theta": 5189,
      "final": 5190,
      "▁Ge": 5191,
      "なくて": 5192,
      "bb": 5193,
      "arily": 5194,
      "','": 5195,
      "▁cities": 5196,
      "returned": 5197,
      "▁rise": 5198,
      "していきます": 5199,
      "whatever": 5200,
      "▁welcome": 5201,
      "保": 5202,
      "強": 5203,
      "藤": 5204,
      "なのです": 5205,
      "▁coach": 5206,
      "と共に": 5207,
      "龍": 5208,
      "uthority": 5209,
      "Post": 5210,
      "目標": 5211,
      "////////": 5212,
      "パターン": 5213,
      "米国": 5214,
      "今年は": 5215,
      "becoming": 5216,
      "メイク": 5217,
      "完全": 5218,
      "water": 5219,
      "球": 5220,
      "▁signed": 5221,
      "vo": 5222,
      "▁south": 5223,
      "などは": 5224,
      "ること": 5225,
      "美容": 5226,
      "▁smaller": 5227,
      "特徴": 5228,
      "▁See": 5229,
      "クロス": 5230,
      "層": 5231,
      "▁conserv": 5232,
      "Ｔ": 5233,
      "羽": 5234,
      "introduc": 5235,
      "▁prefer": 5236,
      "ダンス": 5237,
      "▁API": 5238,
      "za": 5239,
      "てる": 5240,
      "たくさん": 5241,
      "clinical": 5242,
      "サッカー": 5243,
      "▁happens": 5244,
      "崎": 5245,
      "物件": 5246,
      "Label": 5247,
      "▁sets": 5248,
      "▁CEO": 5249,
      "ルール": 5250,
      "▁compli": 5251,
      "生産": 5252,
      "▁covered": 5253,
      "▁по": 5254,
      "社員": 5255,
      "wa": 5256,
      "▁PC": 5257,
      "▁teacher": 5258,
      "ラー": 5259,
      "options": 5260,
      "▁films": 5261,
      "cl": 5262,
      "第一": 5263,
      "とっても": 5264,
      "partment": 5265,
      "していない": 5266,
      "tilde": 5267,
      "と思って": 5268,
      "専門": 5269,
      "友": 5270,
      "▁Report": 5271,
      "すごい": 5272,
      "戦争": 5273,
      "▁wind": 5274,
      "▁street": 5275,
      "皆さん": 5276,
      "▁bi": 5277,
      "▁pm": 5278,
      "si": 5279,
      "▁maximum": 5280,
      "project": 5281,
      "応援": 5282,
      "ライフ": 5283,
      "絶対": 5284,
      "高さ": 5285,
      "▁technic": 5286,
      "▁park": 5287,
      "▁Game": 5288,
      "の話": 5289,
      "▁Western": 5290,
      "〉": 5291,
      "程": 5292,
      "join": 5293,
      "▁signal": 5294,
      "▁Centre": 5295,
      "Are": 5296,
      "メイン": 5297,
      "と思っています": 5298,
      "ファ": 5299,
      "▁wouldn": 5300,
      "解決": 5301,
      "▁Hill": 5302,
      "さんと": 5303,
      "▁agency": 5304,
      "▁Thomas": 5305,
      "tar": 5306,
      "一方": 5307,
      "Form": 5308,
      "ぐらい": 5309,
      "Configur": 5310,
      "▁port": 5311,
      "OFF": 5312,
      "▁→": 5313,
      "▁focused": 5314,
      "▁assist": 5315,
      "▁promot": 5316,
      "ances": 5317,
      "ことがあります": 5318,
      "系の": 5319,
      "▁fixed": 5320,
      "瀬": 5321,
      "▁updated": 5322,
      "ications": 5323,
      "オプション": 5324,
      "▁Or": 5325,
      "オー": 5326,
      "▁bool": 5327,
      "▁secret": 5328,
      "mplement": 5329,
      "しまう": 5330,
      "毎年": 5331,
      "ベース": 5332,
      "▁equal": 5333,
      "▁estate": 5334,
      "announce": 5335,
      "レンズ": 5336,
      "注意": 5337,
      "▁Top": 5338,
      "ガイド": 5339,
      "▁hearing": 5340,
      "po": 5341,
      "脳": 5342,
      "池": 5343,
      "▁Ben": 5344,
      "材": 5345,
      "pro": 5346,
      "昨日": 5347,
      "都市": 5348,
      "訳": 5349,
      "▁phase": 5350,
      "Sub": 5351,
      "++)": 5352,
      "▁IS": 5353,
      "▁cast": 5354,
      "advanced": 5355,
      "戦略": 5356,
      "▁load": 5357,
      "んだけど": 5358,
      "ものを": 5359,
      "▁Arts": 5360,
      "ｍ": 5361,
      "セール": 5362,
      "▁switch": 5363,
      "節": 5364,
      "鬼": 5365,
      "▁Martin": 5366,
      "塗装": 5367,
      "人で": 5368,
      "著": 5369,
      "▁proper": 5370,
      "印刷": 5371,
      "だったら": 5372,
      "切": 5373,
      "▁random": 5374,
      "パッケージ": 5375,
      "太郎": 5376,
      "ソン": 5377,
      "のお": 5378,
      "MAX": 5379,
      "').": 5380,
      "▁cold": 5381,
      "prepared": 5382,
      "ピ": 5383,
      "'),": 5384,
      "イラスト": 5385,
      "トン": 5386,
      "religiou": 5387,
      "性能": 5388,
      "↑": 5389,
      "btn": 5390,
      "をしている": 5391,
      "▁detail": 5392,
      "Le": 5393,
      "通販": 5394,
      "troduced": 5395,
      "機会": 5396,
      "▁ended": 5397,
      "hi": 5398,
      "メッセージ": 5399,
      "期待": 5400,
      "▁Cup": 5401,
      "宿": 5402,
      "▁profile": 5403,
      "詳細": 5404,
      "MC": 5405,
      "▁Ver": 5406,
      "Frame": 5407,
      "Their": 5408,
      "related": 5409,
      "全ての": 5410,
      "記念": 5411,
      "なければ": 5412,
      "▁eat": 5413,
      "En": 5414,
      "▁specifi": 5415,
      "新品": 5416,
      "津": 5417,
      "People": 5418,
      "恋": 5419,
      "楽天": 5420,
      "Up": 5421,
      "なければならない": 5422,
      "聖": 5423,
      "祭": 5424,
      "アルバム": 5425,
      "▁televis": 5426,
      "▁sun": 5427,
      "ories": 5428,
      "▁Team": 5429,
      "▁$(": 5430,
      "Every": 5431,
      "▁evening": 5432,
      "というのが": 5433,
      "世": 5434,
      "▁Sun": 5435,
      "rho": 5436,
      "連絡": 5437,
      "Default": 5438,
      "もしくは": 5439,
      "達": 5440,
      "いま": 5441,
      "インチ": 5442,
      "ティー": 5443,
      "▁Don": 5444,
      "日記": 5445,
      "派": 5446,
      "難しい": 5447,
      "graphics": 5448,
      "されていた": 5449,
      "▁coordin": 5450,
      "▁haven": 5451,
      "eta": 5452,
      "一人": 5453,
      "Download": 5454,
      "Festival": 5455,
      "▁signifi": 5456,
      "▁units": 5457,
      "歯": 5458,
      "すぎて": 5459,
      "良く": 5460,
      "▁dog": 5461,
      "特集": 5462,
      "▁civil": 5463,
      "良かった": 5464,
      "ferences": 5465,
      "▁kitchen": 5466,
      "▁Chicago": 5467,
      "▁·": 5468,
      "ゴルフ": 5469,
      "〈": 5470,
      "できた": 5471,
      "▁raise": 5472,
      "nav": 5473,
      "▁Bi": 5474,
      "tau": 5475,
      "dventure": 5476,
      "▁edge": 5477,
      "▁Policy": 5478,
      "帯": 5479,
      "ていく": 5480,
      "▁female": 5481,
      "といえば": 5482,
      "▁presid": 5483,
      "▁Richard": 5484,
      "arg": 5485,
      "チケット": 5486,
      "マッサージ": 5487,
      "せず": 5488,
      "パス": 5489,
      "実績": 5490,
      "ficials": 5491,
      "とした": 5492,
      "機械": 5493,
      "ほとんど": 5494,
      "又は": 5495,
      "▁promote": 5496,
      "▁suffer": 5497,
      "新型コロナウイル": 5498,
      "▁drop": 5499,
      "▁float": 5500,
      "sp": 5501,
      "自動": 5502,
      "mountain": 5503,
      "▁managed": 5504,
      "ぬ": 5505,
      "コート": 5506,
      "▁EU": 5507,
      "それに": 5508,
      "▁nor": 5509,
      "保証": 5510,
      "ea": 5511,
      "携帯": 5512,
      "strong": 5513,
      "▁Up": 5514,
      "John": 5515,
      "Further": 5516,
      "公演": 5517,
      "プレミアム": 5518,
      "▁seemed": 5519,
      "安心して": 5520,
      "、、、": 5521,
      "▁sexual": 5522,
      "API": 5523,
      "▁faith": 5524,
      "historic": 5525,
      "division": 5526,
      "▁fear": 5527,
      "tribute": 5528,
      "していて": 5529,
      "tt": 5530,
      "てきた": 5531,
      "▁fashion": 5532,
      "▁Per": 5533,
      "ps": 5534,
      "こちら": 5535,
      "トラブル": 5536,
      "ほか": 5537,
      "Command": 5538,
      "Layout": 5539,
      "Link": 5540,
      "Use": 5541,
      "numerous": 5542,
      "▁volume": 5543,
      "ブロック": 5544,
      "比較": 5545,
      "▁panel": 5546,
      "バン": 5547,
      "ケーキ": 5548,
      "apache": 5549,
      "特": 5550,
      "ately": 5551,
      "料": 5552,
      "レンタル": 5553,
      "don": 5554,
      "card": 5555,
      "Economic": 5556,
      "脚": 5557,
      "▁pieces": 5558,
      "▁metal": 5559,
      "guarante": 5560,
      "弱": 5561,
      "▁les": 5562,
      "ez": 5563,
      "お客様の": 5564,
      "極": 5565,
      "固定": 5566,
      "▁net": 5567,
      "工場": 5568,
      "スマートフォン": 5569,
      "doi": 5570,
      "Ｇ": 5571,
      "▁Angeles": 5572,
      "家の": 5573,
      "▁st": 5574,
      "今年": 5575,
      "▁gain": 5576,
      "Addition": 5577,
      "Who": 5578,
      "advertis": 5579,
      "福岡": 5580,
      "Filter": 5581,
      "▁baby": 5582,
      "▁strateg": 5583,
      "ボディ": 5584,
      "▁Li": 5585,
      "観": 5586,
      "▁rich": 5587,
      "FC": 5588,
      "▁Long": 5589,
      "after": 5590,
      "ノート": 5591,
      "設置": 5592,
      "xi": 5593,
      "Previous": 5594,
      "Pro": 5595,
      "くれる": 5596,
      "}^{": 5597,
      "してしまう": 5598,
      "Top": 5599,
      "穴": 5600,
      "echo": 5601,
      "▁fill": 5602,
      "逆": 5603,
      "Listener": 5604,
      "some": 5605,
      "Factory": 5606,
      "命": 5607,
      "中古": 5608,
      "平均": 5609,
      "中で": 5610,
      "USB": 5611,
      "%)": 5612,
      "▁minimum": 5613,
      "機器": 5614,
      "▁root": 5615,
      "ゼロ": 5616,
      "bool": 5617,
      "▁unless": 5618,
      "▁Ka": 5619,
      "method": 5620,
      "クーポン": 5621,
      "pe": 5622,
      "Server": 5623,
      "▁chief": 5624,
      "市の": 5625,
      "動物": 5626,
      "tab": 5627,
      "▁destroy": 5628,
      "講師": 5629,
      "mathrm": 5630,
      "aries": 5631,
      "va": 5632,
      "▁freedom": 5633,
      "上記": 5634,
      "んですよ": 5635,
      "ポケット": 5636,
      "▁leaving": 5637,
      "▁Mc": 5638,
      "ximately": 5639,
      "SP": 5640,
      "han": 5641,
      "endif": 5642,
      "資金": 5643,
      "ecretary": 5644,
      "奥": 5645,
      "partial": 5646,
      "▁il": 5647,
      "レッド": 5648,
      "ptr": 5649,
      "ビール": 5650,
      "fe": 5651,
      "cast": 5652,
      "▁Family": 5653,
      "コスト": 5654,
      "while": 5655,
      "win": 5656,
      "▁defense": 5657,
      "会社の": 5658,
      "俺": 5659,
      "▁Jesus": 5660,
      "Ｆ": 5661,
      "どのような": 5662,
      "▁una": 5663,
      "▁homes": 5664,
      "最新": 5665,
      "approved": 5666,
      "▁Ba": 5667,
      "マーク": 5668,
      "▁«": 5669,
      "DC": 5670,
      "無い": 5671,
      "Al": 5672,
      "xml": 5673,
      "creased": 5674,
      "pr": 5675,
      "▁Tom": 5676,
      "▁circum": 5677,
      "最初の": 5678,
      "わかる": 5679,
      "手術": 5680,
      "▁aware": 5681,
      "割引": 5682,
      "ium": 5683,
      "ご飯": 5684,
      "sim": 5685,
      "病気": 5686,
      "――": 5687,
      "百": 5688,
      "用品": 5689,
      "tually": 5690,
      "失敗": 5691,
      "▁Asia": 5692,
      "▁op": 5693,
      "よろしくお願い": 5694,
      "<?": 5695,
      "▁decades": 5696,
      "familiar": 5697,
      "▁Royal": 5698,
      "([": 5699,
      "得": 5700,
      "EC": 5701,
      "さんに": 5702,
      "特典": 5703,
      "〇": 5704,
      "売り": 5705,
      "Under": 5706,
      "que": 5707,
      "▁Ar": 5708,
      "▁sharing": 5709,
      "DS": 5710,
      "Ｃ": 5711,
      "色々": 5712,
      "梅": 5713,
      "attr": 5714,
      "発送": 5715,
      "などに": 5716,
      "手続き": 5717,
      "項目": 5718,
      "holder": 5719,
      "(*": 5720,
      "▁crisis": 5721,
      "わけ": 5722,
      "▁observ": 5723,
      "痛み": 5724,
      "客": 5725,
      "▁sit": 5726,
      "▁guy": 5727,
      "▁route": 5728,
      "▁Grand": 5729,
      "turing": 5730,
      "INFO": 5731,
      "▁calcula": 5732,
      "ised": 5733,
      "ssistant": 5734,
      "▁max": 5735,
      "シングル": 5736,
      "要": 5737,
      "あなたが": 5738,
      "▁fund": 5739,
      "相場": 5740,
      "▁Paris": 5741,
      "Register": 5742,
      "amp": 5743,
      "reponame": 5744,
      "鍋": 5745,
      "流れ": 5746,
      "＾＾": 5747,
      "Standard": 5748,
      "ik": 5749,
      "▁broad": 5750,
      "マー": 5751,
      "▁fix": 5752,
      "▁Sea": 5753,
      "▁license": 5754,
      "▁stated": 5755,
      "Hospital": 5756,
      "lan": 5757,
      "小さい": 5758,
      "▁fish": 5759,
      "オフ": 5760,
      "雑誌": 5761,
      "▁animals": 5762,
      "お知らせ": 5763,
      "Oh": 5764,
      "するために": 5765,
      "tention": 5766,
      "ber": 5767,
      "▁glass": 5768,
      "スレ": 5769,
      "KEY": 5770,
      "ite": 5771,
      "タイプの": 5772,
      "評判": 5773,
      "ゴールド": 5774,
      "構成": 5775,
      "frame": 5776,
      "▁module": 5777,
      "岡": 5778,
      "▁bio": 5779,
      "▁removed": 5780,
      "としての": 5781,
      "長い": 5782,
      "案内": 5783,
      "▁Test": 5784,
      "Provider": 5785,
      "ソース": 5786,
      "▁waiting": 5787,
      "ても": 5788,
      "▁Obama": 5789,
      "▁meant": 5790,
      "admin": 5791,
      "首": 5792,
      "世代": 5793,
      "tics": 5794,
      "そこに": 5795,
      "Column": 5796,
      "新作": 5797,
      "cat": 5798,
      "Ｄ": 5799,
      "obtained": 5800,
      "sen": 5801,
      "コロナ": 5802,
      "華": 5803,
      "▁interac": 5804,
      "情報を": 5805,
      "ジャ": 5806,
      "◇": 5807,
      "ret": 5808,
      "まま": 5809,
      "▁adjust": 5810,
      "▁listed": 5811,
      "残": 5812,
      "▁pair": 5813,
      "art": 5814,
      "モバイル": 5815,
      "理": 5816,
      "カップ": 5817,
      "タン": 5818,
      "▁Medical": 5819,
      "▁manner": 5820,
      "▁girls": 5821,
      "▁calling": 5822,
      "言う": 5823,
      "▁objects": 5824,
      "気分": 5825,
      "洋": 5826,
      "ピン": 5827,
      "▁defend": 5828,
      "変": 5829,
      "なんです": 5830,
      "電子": 5831,
      "▁secure": 5832,
      "▁Rock": 5833,
      "Address": 5834,
      "May": 5835,
      "▁Valley": 5836,
      "貴": 5837,
      "回復": 5838,
      "Thus": 5839,
      "Mode": 5840,
      "年生": 5841,
      "午後": 5842,
      "大きく": 5843,
      "ユ": 5844,
      "出す": 5845,
      "force": 5846,
      "UI": 5847,
      "proposal": 5848,
      "af": 5849,
      "android": 5850,
      "▁Out": 5851,
      "▁Adminis": 5852,
      "referred": 5853,
      "▁ideal": 5854,
      "床": 5855,
      "accurate": 5856,
      "▁cars": 5857,
      "ゆっくり": 5858,
      "友達": 5859,
      "▁volunte": 5860,
      "▁Mary": 5861,
      "当日": 5862,
      "まさに": 5863,
      "ベルト": 5864,
      "スープ": 5865,
      "その他の": 5866,
      "Ｍ": 5867,
      "close": 5868,
      "▁thank": 5869,
      "をした": 5870,
      "億": 5871,
      "▁mostly": 5872,
      "サイド": 5873,
      "ini": 5874,
      "竹": 5875,
      "ビー": 5876,
      "▁guys": 5877,
      "reg": 5878,
      "Search": 5879,
      "を受け": 5880,
      "▁pop": 5881,
      "▁Blue": 5882,
      "Software": 5883,
      "教": 5884,
      "torical": 5885,
      "鉄道": 5886,
      "constitu": 5887,
      "明日": 5888,
      "髪": 5889,
      "launched": 5890,
      "Buffer": 5891,
      "▁Middle": 5892,
      "ミス": 5893,
      "accident": 5894,
      "べ": 5895,
      "はい": 5896,
      "layout": 5897,
      "普通": 5898,
      "▁bed": 5899,
      "ビデオ": 5900,
      "}{\\": 5901,
      "陽": 5902,
      "Those": 5903,
      "▁Show": 5904,
      "▁spring": 5905,
      "▁centre": 5906,
      "▁holiday": 5907,
      "普通の": 5908,
      "▁throw": 5909,
      "▁lived": 5910,
      "txt": 5911,
      "Url": 5912,
      "身体": 5913,
      "ku": 5914,
      "乾燥": 5915,
      "取得": 5916,
      "ならば": 5917,
      "マット": 5918,
      "▁ver": 5919,
      "シューズ": 5920,
      "▁Set": 5921,
      "制限": 5922,
      "vention": 5923,
      "よかった": 5924,
      "しかない": 5925,
      "たくさんの": 5926,
      "ピンク": 5927,
      "っぽい": 5928,
      "Http": 5929,
      "エンジン": 5930,
      "しっかりと": 5931,
      "▁By": 5932,
      "ペン": 5933,
      "▁nine": 5934,
      "ously": 5935,
      "Length": 5936,
      "▁Guide": 5937,
      "▁issued": 5938,
      "Applica": 5939,
      "新聞": 5940,
      "▁warm": 5941,
      "あなた": 5942,
      "▁popula": 5943,
      "スタジオ": 5944,
      "活用": 5945,
      "▁Will": 5946,
      "売却": 5947,
      "Int": 5948,
      "▁starts": 5949,
      "永": 5950,
      "を通して": 5951,
      "system": 5952,
      "Out": 5953,
      "技": 5954,
      "道路": 5955,
      "あとは": 5956,
      "▁married": 5957,
      "intended": 5958,
      "装置": 5959,
      "んですけど": 5960,
      "要素": 5961,
      "St": 5962,
      "▁pool": 5963,
      "ensive": 5964,
      "ker": 5965,
      "いろんな": 5966,
      "ji": 5967,
      "までは": 5968,
      "緑": 5969,
      "▁Lee": 5970,
      "▁permiss": 5971,
      "が必要": 5972,
      "▁motor": 5973,
      "何を": 5974,
      "するのは": 5975,
      "▁Lu": 5976,
      "▁Pa": 5977,
      "違い": 5978,
      "▁appeal": 5979,
      "cd": 5980,
      "Inter": 5981,
      "者の": 5982,
      "▁justice": 5983,
      "霊": 5984,
      "PM": 5985,
      "あなたは": 5986,
      "フィ": 5987,
      "▁transla": 5988,
      "▁Library": 5989,
      "段": 5990,
      "湖": 5991,
      "▁Land": 5992,
      "▁doubt": 5993,
      "▁housing": 5994,
      "別に": 5995,
      "ものは": 5996,
      "▁レディース": 5997,
      "▁Energy": 5998,
      "combined": 5999,
      "悩み": 6000,
      "▁mis": 6001,
      "▁corpora": 6002,
      "▁名無しさん": 6003,
      "の中": 6004,
      "輪": 6005,
      "mocratic": 6006,
      "▁shift": 6007,
      "▁exclus": 6008,
      "先に": 6009,
      "ショッピング": 6010,
      "Only": 6011,
      "バッテリー": 6012,
      "査定": 6013,
      "自動車": 6014,
      "Find": 6015,
      "んですね": 6016,
      "^\\": 6017,
      "レイ": 6018,
      "mark": 6019,
      "any": 6020,
      "シャンプー": 6021,
      "▁dream": 6022,
      "でしょ": 6023,
      "▁log": 6024,
      "▁plants": 6025,
      "季節": 6026,
      "ot": 6027,
      "読んで": 6028,
      "▁np": 6029,
      "それで": 6030,
      "я": 6031,
      "▁lots": 6032,
      "菜": 6033,
      "関": 6034,
      "広": 6035,
      "▁slow": 6036,
      "普段": 6037,
      "しやすい": 6038,
      "icipants": 6039,
      "▁knows": 6040,
      "descript": 6041,
      "深": 6042,
      "が必要です": 6043,
      "▁winning": 6044,
      "omega": 6045,
      "big": 6046,
      "関西": 6047,
      "▁gift": 6048,
      "回答": 6049,
      "肩": 6050,
      "▁associa": 6051,
      "address": 6052,
      "▁guess": 6053,
      "普通に": 6054,
      "▁Phil": 6055,
      "▁winter": 6056,
      "▁experts": 6057,
      "cture": 6058,
      "▁min": 6059,
      "▁holding": 6060,
      "なのですが": 6061,
      "▁extract": 6062,
      "train": 6063,
      "magazine": 6064,
      "Virginia": 6065,
      "成功": 6066,
      "α": 6067,
      "税": 6068,
      "meta": 6069,
      "アカウント": 6070,
      "正直": 6071,
      "▁enable": 6072,
      "見る": 6073,
      "司": 6074,
      "あたり": 6075,
      "▁revenue": 6076,
      "xpensive": 6077,
      "########": 6078,
      "無理": 6079,
      "▁keeping": 6080,
      "▁Charles": 6081,
      "Mo": 6082,
      "比": 6083,
      "ようになりました": 6084,
      "▁dynamic": 6085,
      "防止": 6086,
      "人と": 6087,
      "現場": 6088,
      "▁survey": 6089,
      "種類の": 6090,
      "ところが": 6091,
      "予算": 6092,
      "▁possess": 6093,
      "*}": 6094,
      "杯": 6095,
      "･･･": 6096,
      "▁Live": 6097,
      "▁injury": 6098,
      "ことです": 6099,
      "」、「": 6100,
      "Format": 6101,
      "Catholic": 6102,
      "Accord": 6103,
      "Tags": 6104,
      "無料で": 6105,
      "▁lose": 6106,
      "▁Not": 6107,
      "Make": 6108,
      "案": 6109,
      "▁carried": 6110,
      "▁leads": 6111,
      "protect": 6112,
      "訪問": 6113,
      "dt": 6114,
      "▁dry": 6115,
      "インテリア": 6116,
      "反応": 6117,
      "でき": 6118,
      "facility": 6119,
      "ダブル": 6120,
      "▁notes": 6121,
      "holders": 6122,
      "依頼": 6123,
      "andidate": 6124,
      "▁infras": 6125,
      "Right": 6126,
      "使って": 6127,
      "の違い": 6128,
      "▁zero": 6129,
      "長く": 6130,
      "Per": 6131,
      "▁sounds": 6132,
      "double": 6133,
      "昔": 6134,
      "官": 6135,
      "▁camp": 6136,
      "ロン": 6137,
      "診断": 6138,
      "▁crime": 6139,
      "▁Special": 6140,
      "▁Federal": 6141,
      "行為": 6142,
      "▁draw": 6143,
      "remove": 6144,
      "LED": 6145,
      "フランス": 6146,
      "▁garden": 6147,
      "弁護士": 6148,
      "▁certifi": 6149,
      "後は": 6150,
      "一日": 6151,
      "』（": 6152,
      "チーズ": 6153,
      "価値": 6154,
      "▁markets": 6155,
      "Maybe": 6156,
      "スポット": 6157,
      "バランス": 6158,
      "最近は": 6159,
      "delete": 6160,
      "callback": 6161,
      "発行": 6162,
      "▁compreh": 6163,
      "▁Work": 6164,
      "▁speech": 6165,
      "考えて": 6166,
      "なの": 6167,
      "▁boolean": 6168,
      "也": 6169,
      "上に": 6170,
      "world": 6171,
      "▁filter": 6172,
      "TO": 6173,
      "ov": 6174,
      "と思い": 6175,
      "順": 6176,
      "おいしい": 6177,
      "Block": 6178,
      "書き": 6179,
      "Style": 6180,
      "hold": 6181,
      "努力": 6182,
      "やら": 6183,
      "京": 6184,
      "群": 6185,
      "窓": 6186,
      "ブル": 6187,
      "lock": 6188,
      "ig": 6189,
      "affected": 6190,
      "▁brings": 6191,
      "Big": 6192,
      "▁fourth": 6193,
      "皮": 6194,
      "▁pull": 6195,
      "神戸": 6196,
      "pic": 6197,
      "委員会": 6198,
      "Man": 6199,
      "当時": 6200,
      "よい": 6201,
      "marriage": 6202,
      "つつ": 6203,
      "小説": 6204,
      "▁Du": 6205,
      "泉": 6206,
      "▁Net": 6207,
      "▁involve": 6208,
      "ほ": 6209,
      "となっている": 6210,
      "家具": 6211,
      "ジャパン": 6212,
      "▁plays": 6213,
      "おります": 6214,
      "卒業": 6215,
      "の上": 6216,
      "彼の": 6217,
      "っていう": 6218,
      "inspired": 6219,
      "watching": 6220,
      "▁excited": 6221,
      "かけ": 6222,
      "▁fellow": 6223,
      "AC": 6224,
      "だけの": 6225,
      "Thread": 6226,
      "tree": 6227,
      "指": 6228,
      "事例": 6229,
      "最終": 6230,
      "▁cont": 6231,
      "ワンピース": 6232,
      "管": 6233,
      "込む": 6234,
      "▁At": 6235,
      "column": 6236,
      "]{": 6237,
      "▁birth": 6238,
      "control": 6239,
      "CA": 6240,
      "そば": 6241,
      "をご紹介します": 6242,
      "bottom": 6243,
      "▁terror": 6244,
      "粉": 6245,
      "やる": 6246,
      "徒歩": 6247,
      "んですよね": 6248,
      "▁reduced": 6249,
      "トラック": 6250,
      "▁Mexico": 6251,
      "▁waste": 6252,
      "標準": 6253,
      "hood": 6254,
      "Output": 6255,
      "完成": 6256,
      "検討": 6257,
      "ile": 6258,
      "ゼ": 6259,
      "あって": 6260,
      "▁archite": 6261,
      "ris": 6262,
      "飲み": 6263,
      "徳": 6264,
      "飯": 6265,
      "▁chain": 6266,
      "複数の": 6267,
      "打ち": 6268,
      "症": 6269,
      "AP": 6270,
      "hristian": 6271,
      "頑張って": 6272,
      "おすすめの": 6273,
      "▁layer": 6274,
      "歩": 6275,
      "なん": 6276,
      "とはいえ": 6277,
      "▁Master": 6278,
      "▁decide": 6279,
      "既に": 6280,
      "▁CD": 6281,
      "▁Section": 6282,
      "painting": 6283,
      "ありません": 6284,
      "重要な": 6285,
      "食べる": 6286,
      "ctx": 6287,
      "cantly": 6288,
      "ese": 6289,
      "合い": 6290,
      "▁People": 6291,
      "▁Academy": 6292,
      "もなく": 6293,
      "pl": 6294,
      "からも": 6295,
      "それから": 6296,
      "nimation": 6297,
      "もう少し": 6298,
      "血": 6299,
      "ドレス": 6300,
      "いきます": 6301,
      "▁info": 6302,
      "ネタ": 6303,
      "vector": 6304,
      "▁push": 6305,
      "▁theme": 6306,
      "▁boy": 6307,
      "建設": 6308,
      "ロング": 6309,
      "▁wave": 6310,
      "政治": 6311,
      "MM": 6312,
      "施工": 6313,
      "言語": 6314,
      "▁cards": 6315,
      "顧客": 6316,
      "地区": 6317,
      "▁query": 6318,
      "▁holds": 6319,
      "▁square": 6320,
      "正しい": 6321,
      "Local": 6322,
      "優": 6323,
      "アクセサリー": 6324,
      "í": 6325,
      "ドア": 6326,
      "姫": 6327,
      "Good": 6328,
      "糸": 6329,
      "▁Under": 6330,
      "our": 6331,
      "によっては": 6332,
      "▁Play": 6333,
      "MS": 6334,
      "▁corner": 6335,
      "ワーク": 6336,
      "▁wood": 6337,
      "▁fuel": 6338,
      "▁schedul": 6339,
      "バラ": 6340,
      "low": 6341,
      "ということです": 6342,
      "▁expert": 6343,
      "▁reviews": 6344,
      "ねぇ": 6345,
      "古い": 6346,
      "ries": 6347,
      "ケーブル": 6348,
      "▁prison": 6349,
      "Position": 6350,
      "▁edition": 6351,
      "の方は": 6352,
      "▁explor": 6353,
      "合格": 6354,
      "▁empty": 6355,
      "▁forced": 6356,
      "mode": 6357,
      "好": 6358,
      "▁ice": 6359,
      "鼻": 6360,
      "大手": 6361,
      "then": 6362,
      "テン": 6363,
      "ビタミン": 6364,
      "▁stars": 6365,
      "ati": 6366,
      "配送": 6367,
      "▁Android": 6368,
      "▁File": 6369,
      "説": 6370,
      "}(\\": 6371,
      "MP": 6372,
      "画": 6373,
      "のかな": 6374,
      "Select": 6375,
      "byte": 6376,
      "数字": 6377,
      "社長": 6378,
      "眼": 6379,
      "QA": 6380,
      "開": 6381,
      "を作って": 6382,
      "ato": 6383,
      "▁agent": 6384,
      "運転": 6385,
      "▁receiv": 6386,
      "throw": 6387,
      "▁Johnson": 6388,
      "ギフト": 6389,
      "▁cent": 6390,
      "vec": 6391,
      "▁Collect": 6392,
      "メンズ": 6393,
      "スタンド": 6394,
      "Delta": 6395,
      "▁domain": 6396,
      "%;": 6397,
      "slightly": 6398,
      "ですし": 6399,
      "サーバー": 6400,
      "Net": 6401,
      "▁movies": 6402,
      "のお知らせ": 6403,
      "拡大": 6404,
      "液": 6405,
      "地震": 6406,
      "edit": 6407,
      "▁settle": 6408,
      "▁shares": 6409,
      "Free": 6410,
      "パーク": 6411,
      "nn": 6412,
      "▁owners": 6413,
      "ster": 6414,
      "運": 6415,
      "ニュー": 6416,
      "マーケティング": 6417,
      "▁mark": 6418,
      "▁coffee": 6419,
      "pandemic": 6420,
      "色々な": 6421,
      "札幌": 6422,
      "掃除": 6423,
      "ement": 6424,
      "▁Justice": 6425,
      "mparison": 6426,
      "hand": 6427,
      "強化": 6428,
      "▁youth": 6429,
      "塾": 6430,
      "bi": 6431,
      "こそ": 6432,
      "スピード": 6433,
      "mg": 6434,
      "▁upper": 6435,
      "override": 6436,
      "▁medium": 6437,
      "▁noted": 6438,
      "IO": 6439,
      "ということは": 6440,
      "observed": 6441,
      "▁CA": 6442,
      "事情": 6443,
      "Ｐ": 6444,
      "MB": 6445,
      "いろいろな": 6446,
      "ph": 6447,
      "par": 6448,
      "pub": 6449,
      "建物": 6450,
      "つけ": 6451,
      "いたしました": 6452,
      "させ": 6453,
      "▁Film": 6454,
      "実験": 6455,
      "▁transac": 6456,
      "昨年": 6457,
      "定": 6458,
      "nting": 6459,
      "child": 6460,
      "phy": 6461,
      "▁dance": 6462,
      "▁dimens": 6463,
      "▁massive": 6464,
      "frequent": 6465,
      "課": 6466,
      "ダウン": 6467,
      "せる": 6468,
      "主に": 6469,
      "▁est": 6470,
      "▁His": 6471,
      "知らない": 6472,
      "ai": 6473,
      "▁indicat": 6474,
      "▁witness": 6475,
      "▁su": 6476,
      "と呼ばれる": 6477,
      "▁ge": 6478,
      "м": 6479,
      "を行います": 6480,
      "はずです": 6481,
      "を通じて": 6482,
      "▁formula": 6483,
      "game": 6484,
      "▁Pre": 6485,
      "kan": 6486,
      "cell": 6487,
      "▁portion": 6488,
      "可能な": 6489,
      "今年の": 6490,
      "セル": 6491,
      "ou": 6492,
      "サー": 6493,
      "▁cor": 6494,
      "▁sex": 6495,
      "TYPE": 6496,
      "を受ける": 6497,
      "位置": 6498,
      "ken": 6499,
      "のではないか": 6500,
      "▁commiss": 6501,
      "revealed": 6502,
      "られ": 6503,
      "ニー": 6504,
      "アイドル": 6505,
      "を入れて": 6506,
      "世界の": 6507,
      "上げ": 6508,
      "▁wedding": 6509,
      "車両": 6510,
      "▁corre": 6511,
      "▁Men": 6512,
      "OR": 6513,
      "全然": 6514,
      "このように": 6515,
      "▁refer": 6516,
      "ゲ": 6517,
      "unsigned": 6518,
      "RT": 6519,
      "▁Joe": 6520,
      "に関して": 6521,
      "九州": 6522,
      "▁PR": 6523,
      "の特徴": 6524,
      "いただけます": 6525,
      "カテゴリー": 6526,
      "▁enhance": 6527,
      "stan": 6528,
      "腹": 6529,
      "予防": 6530,
      "▁label": 6531,
      "▁Date": 6532,
      "hu": 6533,
      "menu": 6534,
      "recorded": 6535,
      "▁topic": 6536,
      "▁/*": 6537,
      "ordinary": 6538,
      "Microsof": 6539,
      "split": 6540,
      "Despite": 6541,
      "domestic": 6542,
      "▁plenty": 6543,
      "▁Dec": 6544,
      "▁Beach": 6545,
      "政": 6546,
      "▁trouble": 6547,
      "地図": 6548,
      "padding": 6549,
      "スタ": 6550,
      "居": 6551,
      "(@": 6552,
      "▁Na": 6553,
      "▁assign": 6554,
      "彼は": 6555,
      "買って": 6556,
      "▁メンズ": 6557,
      "植物": 6558,
      "fn": 6559,
      "を紹介": 6560,
      "近": 6561,
      "家庭": 6562,
      "▁sweet": 6563,
      "measures": 6564,
      "℃": 6565,
      "supposed": 6566,
      "ヘ": 6567,
      "▁por": 6568,
      "Democrat": 6569,
      "▁Good": 6570,
      "立ち": 6571,
      "edge": 6572,
      "愛知県": 6573,
      "▁arrange": 6574,
      "ピアノ": 6575,
      "仕上げ": 6576,
      "神奈川県": 6577,
      "言って": 6578,
      "師": 6579,
      "▁Environ": 6580,
      "II": 6581,
      "▁Product": 6582,
      "探し": 6583,
      "少年": 6584,
      "億円": 6585,
      "フォーム": 6586,
      "焼": 6587,
      "すぎ": 6588,
      "scope": 6589,
      "デビュー": 6590,
      "▁minor": 6591,
      "マル": 6592,
      "距離": 6593,
      "del": 6594,
      "やっと": 6595,
      "銀": 6596,
      "spending": 6597,
      "祝": 6598,
      "sha": 6599,
      "▁Care": 6600,
      "Through": 6601,
      "▁native": 6602,
      "収入": 6603,
      "▁putting": 6604,
      "▁Gold": 6605,
      "Max": 6606,
      "パーティー": 6607,
      "を選ぶ": 6608,
      "まして": 6609,
      "クラウド": 6610,
      "事前に": 6611,
      "▁Sa": 6612,
      "NG": 6613,
      "▁Chief": 6614,
      "▁consequ": 6615,
      "現在は": 6616,
      "によると": 6617,
      "エア": 6618,
      "exciting": 6619,
      "▁restric": 6620,
      "▁retail": 6621,
      "取": 6622,
      "properly": 6623,
      "栄養": 6624,
      "ney": 6625,
      "nts": 6626,
      "▁Part": 6627,
      "git": 6628,
      "異": 6629,
      "範囲": 6630,
      "何度も": 6631,
      "gar": 6632,
      "▁Ro": 6633,
      "ございます": 6634,
      "▁destina": 6635,
      "Instead": 6636,
      "元気": 6637,
      "煮": 6638,
      "before": 6639,
      "iv": 6640,
      "してから": 6641,
      "▁flat": 6642,
      "をはじめ": 6643,
      "wp": 6644,
      "ignature": 6645,
      "ドライバー": 6646,
      "広島": 6647,
      "▁Online": 6648,
      "職": 6649,
      "優勝": 6650,
      "ヨ": 6651,
      "展示": 6652,
      "▁len": 6653,
      "市民": 6654,
      "reserved": 6655,
      "▁musical": 6656,
      "▁aspects": 6657,
      "▁Bo": 6658,
      "フロント": 6659,
      "▁iPhone": 6660,
      "medicine": 6661,
      "発生": 6662,
      "▁proud": 6663,
      "▁era": 6664,
      "▁margin": 6665,
      "記憶": 6666,
      "お腹いっぱい": 6667,
      "当社": 6668,
      "▁careful": 6669,
      "ectronic": 6670,
      "apparent": 6671,
      "]]": 6672,
      "▁island": 6673,
      "麺": 6674,
      "整備": 6675,
      "▁recogni": 6676,
      "save": 6677,
      "▁Ad": 6678,
      "しまった": 6679,
      "Mac": 6680,
      "▁flight": 6681,
      "protocol": 6682,
      "▁Penn": 6683,
      "　（": 6684,
      "credible": 6685,
      "もない": 6686,
      "Template": 6687,
      "▁serving": 6688,
      "現実": 6689,
      "認識": 6690,
      "感染": 6691,
      "now": 6692,
      "調": 6693,
      "detailed": 6694,
      "彼女": 6695,
      "▁protest": 6696,
      "mb": 6697,
      "▁mental": 6698,
      "行き": 6699,
      "リリース": 6700,
      "vi": 6701,
      "来た": 6702,
      "make": 6703,
      "common": 6704,
      "≫": 6705,
      "Assert": 6706,
      "person": 6707,
      "▁Senate": 6708,
      "reaction": 6709,
      "ここでは": 6710,
      "ダメージ": 6711,
      "なんだ": 6712,
      "　「": 6713,
      "日は": 6714,
      "政策": 6715,
      "▁Ha": 6716,
      "Tag": 6717,
      "スペシャル": 6718,
      "cation": 6719,
      "▁exists": 6720,
      "不足": 6721,
      "▁From": 6722,
      "grid": 6723,
      "▁prepare": 6724,
      "▁mix": 6725,
      "選び": 6726,
      "non": 6727,
      "▁filled": 6728,
      "卵": 6729,
      "Division": 6730,
      "possibly": 6731,
      "スイッチ": 6732,
      "estimate": 6733,
      "´": 6734,
      "Carolina": 6735,
      "▁That": 6736,
      "男子": 6737,
      "げ": 6738,
      "▁proceed": 6739,
      "leq": 6740,
      "click": 6741,
      "キロ": 6742,
      "▁separat": 6743,
      "stone": 6744,
      "▁judge": 6745,
      "細胞": 6746,
      "regional": 6747,
      "事を": 6748,
      "Task": 6749,
      "isation": 6750,
      "ダイ": 6751,
      "ガー": 6752,
      "ないと": 6753,
      "蔵": 6754,
      "スイーツ": 6755,
      "console": 6756,
      "暮らし": 6757,
      "▁bus": 6758,
      "んだよ": 6759,
      "▁comput": 6760,
      "コーナー": 6761,
      "場合があります": 6762,
      "▁accompl": 6763,
      "terprise": 6764,
      "決済": 6765,
      "Pre": 6766,
      "incident": 6767,
      "cb": 6768,
      "バイト": 6769,
      "▁nuclear": 6770,
      "▁videos": 6771,
      "▁var": 6772,
      "専門店": 6773,
      "豊": 6774,
      "Ref": 6775,
      "du": 6776,
      "疲れ": 6777,
      "▁remote": 6778,
      "いただいた": 6779,
      "Finally": 6780,
      "ボーナス": 6781,
      "動作": 6782,
      "nded": 6783,
      "充電": 6784,
      "グルメ": 6785,
      "extended": 6786,
      "公式サイト": 6787,
      "▁audio": 6788,
      "▁IT": 6789,
      "▁cloud": 6790,
      "shooting": 6791,
      "rc": 6792,
      "▁Fire": 6793,
      "優しい": 6794,
      "MA": 6795,
      "▁Army": 6796,
      "Process": 6797,
      "性格": 6798,
      "command": 6799,
      "▁tend": 6800,
      "ダー": 6801,
      "むしろ": 6802,
      "医師": 6803,
      "ジー": 6804,
      "Window": 6805,
      "趣味": 6806,
      "▁Ireland": 6807,
      "publican": 6808,
      "進": 6809,
      "▁motion": 6810,
      "▁graduat": 6811,
      "types": 6812,
      "SE": 6813,
      "▁wear": 6814,
      "citizens": 6815,
      "を受けて": 6816,
      "最初に": 6817,
      "▁carbon": 6818,
      "▁editor": 6819,
      "▁asking": 6820,
      "ational": 6821,
      "大切な": 6822,
      "ionals": 6823,
      "これからも": 6824,
      "▁Old": 6825,
      "なあ": 6826,
      "gi": 6827,
      "GL": 6828,
      "ボード": 6829,
      "日目": 6830,
      "▁Scott": 6831,
      "考える": 6832,
      "je": 6833,
      "ルート": 6834,
      "券": 6835,
      "greatest": 6836,
      "▁labor": 6837,
      "これも": 6838,
      "できません": 6839,
      "==": 6840,
      ")　": 6841,
      "▁solar": 6842,
      "する方法": 6843,
      "フード": 6844,
      "ております": 6845,
      "ようで": 6846,
      "利益": 6847,
      "▁leaves": 6848,
      "場合には": 6849,
      "ジュ": 6850,
      "テキスト": 6851,
      "LA": 6852,
      "▁beauty": 6853,
      "▁soft": 6854,
      "mon": 6855,
      "▁expans": 6856,
      "インタビュー": 6857,
      "▁apart": 6858,
      "宇宙": 6859,
      "ドライブ": 6860,
      "▁protein": 6861,
      "ゆ": 6862,
      "便利": 6863,
      "Building": 6864,
      "▁Corpora": 6865,
      "マルチ": 6866,
      "match": 6867,
      "▁suspect": 6868,
      "だからこそ": 6869,
      "回転": 6870,
      "recogniz": 6871,
      "▁{\\": 6872,
      "▁trees": 6873,
      "step": 6874,
      "graphs": 6875,
      "チャンス": 6876,
      "ものが": 6877,
      "tz": 6878,
      "空気": 6879,
      "Will": 6880,
      "▁animal": 6881,
      "いつ": 6882,
      "accommod": 6883,
      "values": 6884,
      "…」": 6885,
      "ef": 6886,
      "▁seat": 6887,
      "▁breath": 6888,
      "感覚": 6889,
      "野球": 6890,
      "キット": 6891,
      "多い": 6892,
      "▁gather": 6893,
      "の問題": 6894,
      "引": 6895,
      "女の子": 6896,
      "range": 6897,
      "!?": 6898,
      "minister": 6899,
      "Take": 6900,
      "▁seek": 6901,
      "era": 6902,
      "▁Night": 6903,
      "下記": 6904,
      "contain": 6905,
      "食材": 6906,
      "▁minute": 6907,
      "限り": 6908,
      "Wi": 6909,
      "残り": 6910,
      "▁male": 6911,
      "▁wine": 6912,
      "▁bright": 6913,
      "リーグ": 6914,
      "BR": 6915,
      "BA": 6916,
      "cap": 6917,
      "didates": 6918,
      "走": 6919,
      "rt": 6920,
      "Language": 6921,
      "端末": 6922,
      "ents": 6923,
      "相手の": 6924,
      "汚れ": 6925,
      "他にも": 6926,
      "を探す": 6927,
      "こんなに": 6928,
      "festival": 6929,
      "▁за": 6930,
      "状": 6931,
      "書類": 6932,
      "大型": 6933,
      "と言って": 6934,
      "提案": 6935,
      "tures": 6936,
      "を行い": 6937,
      "▁Tour": 6938,
      "フレーム": 6939,
      "Whether": 6940,
      "ified": 6941,
      "コピー": 6942,
      "感情": 6943,
      "▁tells": 6944,
      "コレクション": 6945,
      "NHK": 6946,
      "life": 6947,
      "アクション": 6948,
      "missions": 6949,
      "事実": 6950,
      "▁qualifi": 6951,
      "みて": 6952,
      "参考": 6953,
      "自分は": 6954,
      "в": 6955,
      "ap": 6956,
      "▁await": 6957,
      "づくり": 6958,
      "Medicine": 6959,
      "ita": 6960,
      "▁menu": 6961,
      "今年も": 6962,
      "▁philoso": 6963,
      "続ける": 6964,
      "ella": 6965,
      "psi": 6966,
      "raw": 6967,
      "▁Sports": 6968,
      "▁script": 6969,
      "messages": 6970,
      "ide": 6971,
      "▁FOR": 6972,
      "空港": 6973,
      "素": 6974,
      "▁charges": 6975,
      "大阪府": 6976,
      "Project": 6977,
      "についても": 6978,
      "atory": 6979,
      "▁Fund": 6980,
      "▁Champ": 6981,
      "像": 6982,
      "腕": 6983,
      "buffer": 6984,
      "berg": 6985,
      "さえ": 6986,
      "▁prove": 6987,
      "文章": 6988,
      "ご注文": 6989,
      "empty": 6990,
      "DE": 6991,
      "パネル": 6992,
      "澤": 6993,
      "チャンネル": 6994,
      "▁combina": 6995,
      "fer": 6996,
      "初心者": 6997,
      "今日も": 6998,
      "т": 6999,
      "allowing": 7000,
      "のうち": 7001,
      "under": 7002,
      "termine": 7003,
      "▁ran": 7004,
      "浜": 7005,
      "▁seconds": 7006,
      "列": 7007,
      "仲間": 7008,
      "Json": 7009,
      "▁formed": 7010,
      "▁Jewish": 7011,
      "▁enforce": 7012,
      "モン": 7013,
      "▁True": 7014,
      "play": 7015,
      "▁Games": 7016,
      "▁Photo": 7017,
      "Write": 7018,
      "印": 7019,
      "▁browser": 7020,
      "どんどん": 7021,
      "▁enjoyed": 7022,
      "最高の": 7023,
      "▁tag": 7024,
      "彩": 7025,
      "ラジオ": 7026,
      "のだが": 7027,
      "ことから": 7028,
      "▁Space": 7029,
      "▁intent": 7030,
      "虫": 7031,
      "軸": 7032,
      "出力": 7033,
      "AT": 7034,
      "MT": 7035,
      "xf": 7036,
      "translat": 7037,
      "までに": 7038,
      "将来": 7039,
      "港": 7040,
      "事務": 7041,
      "feedback": 7042,
      "ros": 7043,
      "受験": 7044,
      "BB": 7045,
      "陣": 7046,
      "政府": 7047,
      "religion": 7048,
      "▁updates": 7049,
      "思う": 7050,
      "界": 7051,
      "np": 7052,
      "派遣": 7053,
      "valuable": 7054,
      "▁doctor": 7055,
      "処分": 7056,
      "越": 7057,
      "行った": 7058,
      "Row": 7059,
      "▁gun": 7060,
      "応募": 7061,
      "品質": 7062,
      "▁spirit": 7063,
      "白い": 7064,
      "まるで": 7065,
      "▁Van": 7066,
      "今後の": 7067,
      "▁Wall": 7068,
      "▁Head": 7069,
      "自宅": 7070,
      "Have": 7071,
      "キーワード": 7072,
      "ola": 7073,
      "▁config": 7074,
      "▁ON": 7075,
      "被": 7076,
      "修正": 7077,
      "▁capture": 7078,
      "もので": 7079,
      "気軽に": 7080,
      "▁Are": 7081,
      "Д": 7082,
      "▁si": 7083,
      "Access": 7084,
      "▁feels": 7085,
      "きます": 7086,
      "報道": 7087,
      "の高い": 7088,
      "▁treated": 7089,
      "渡": 7090,
      "しましたが": 7091,
      "▁rare": 7092,
      "だけではなく": 7093,
      "▁matters": 7094,
      "entry": 7095,
      "するための": 7096,
      "novative": 7097,
      "▁Jones": 7098,
      "▁km": 7099,
      "大きい": 7100,
      "関東": 7101,
      "ura": 7102,
      "子育て": 7103,
      "速": 7104,
      "▁los": 7105,
      "▁gender": 7106,
      "▁>=": 7107,
      "月から": 7108,
      "いたら": 7109,
      "Using": 7110,
      "speaking": 7111,
      "恐縮です": 7112,
      "▁Pi": 7113,
      "ontainer": 7114,
      "オススメ": 7115,
      "言": 7116,
      "▁extend": 7117,
      "▁studio": 7118,
      "dict": 7119,
      "▁adults": 7120,
      "部門": 7121,
      "sql": 7122,
      "最初は": 7123,
      "▁Da": 7124,
      "影": 7125,
      "trategic": 7126,
      "▁${": 7127,
      "端": 7128,
      "を目指す": 7129,
      "dr": 7130,
      "▁Awards": 7131,
      "就職": 7132,
      "バージョン": 7133,
      "Southern": 7134,
      "行う": 7135,
      "▁fee": 7136,
      "▁scholar": 7137,
      "ヘッド": 7138,
      "screen": 7139,
      "涙": 7140,
      "機関": 7141,
      "買い物": 7142,
      "▁font": 7143,
      "▁Control": 7144,
      "contrast": 7145,
      "▁投稿日": 7146,
      "実際の": 7147,
      "農業": 7148,
      "▁Chris": 7149,
      "▁electro": 7150,
      "ドイツ": 7151,
      "ほしい": 7152,
      "を楽しむ": 7153,
      "ortation": 7154,
      "簡単な": 7155,
      "lu": 7156,
      "▁registr": 7157,
      "ヌ": 7158,
      "動": 7159,
      "かと思います": 7160,
      "KB": 7161,
      "Though": 7162,
      "すべき": 7163,
      "▁capabil": 7164,
      "Api": 7165,
      "HD": 7166,
      "が出る": 7167,
      "満": 7168,
      "想像": 7169,
      "total": 7170,
      "▁End": 7171,
      "profit": 7172,
      "舞台": 7173,
      "wareness": 7174,
      "埼玉県": 7175,
      "体制": 7176,
      "proof": 7177,
      "時間が": 7178,
      "認証": 7179,
      "Edit": 7180,
      "合わせ": 7181,
      "仁": 7182,
      "どうぞ": 7183,
      "▁seeking": 7184,
      "orporate": 7185,
      "Module": 7186,
      "tu": 7187,
      "ローン": 7188,
      "▁Sam": 7189,
      "python": 7190,
      "esterday": 7191,
      "▁convent": 7192,
      "かかる": 7193,
      "温度": 7194,
      "▁herself": 7195,
      "演奏": 7196,
      "ble": 7197,
      "ky": 7198,
      "▁rain": 7199,
      "丁寧に": 7200,
      "協力": 7201,
      "ことになります": 7202,
      "まる": 7203,
      "watch": 7204,
      "cs": 7205,
      "▁conveni": 7206,
      "ワールド": 7207,
      "pass": 7208,
      "▁struggl": 7209,
      "▁dollars": 7210,
      "わけです": 7211,
      "fternoon": 7212,
      "に近い": 7213,
      "向上": 7214,
      "介": 7215,
      "▲": 7216,
      "タブレット": 7217,
      "のであれば": 7218,
      "いただき": 7219,
      "▁Use": 7220,
      "打": 7221,
      "チョコ": 7222,
      "agencies": 7223,
      "▁occur": 7224,
      "▁os": 7225,
      "annotat": 7226,
      "▁begins": 7227,
      "▁readers": 7228,
      "Pakistan": 7229,
      "レン": 7230,
      "▁Sha": 7231,
      "▁Real": 7232,
      "▁Ga": 7233,
      "ball": 7234,
      "▁Town": 7235,
      "に必要な": 7236,
      "():": 7237,
      "▁profit": 7238,
      "▁debt": 7239,
      "olitical": 7240,
      "経": 7241,
      "員": 7242,
      "ut": 7243,
      "▁favor": 7244,
      "在庫": 7245,
      "▁equival": 7246,
      "Header": 7247,
      "▁fell": 7248,
      "▁Boston": 7249,
      "copy": 7250,
      "ning": 7251,
      "recovery": 7252,
      "'],": 7253,
      "р": 7254,
      "Category": 7255,
      "▁steel": 7256,
      "▁errors": 7257,
      "矢": 7258,
      "現代": 7259,
      "こうした": 7260,
      "佐": 7261,
      "▁compar": 7262,
      "エンジニア": 7263,
      "Settings": 7264,
      "teachers": 7265,
      "▁threat": 7266,
      "タイミング": 7267,
      "減": 7268,
      "プリント": 7269,
      "ドリンク": 7270,
      "時から": 7271,
      "こともあります": 7272,
      "other": 7273,
      "▁chosen": 7274,
      "なんとか": 7275,
      "▁assets": 7276,
      "複数": 7277,
      "▁UN": 7278,
      "片": 7279,
      "兵": 7280,
      "▁render": 7281,
      "▁DC": 7282,
      "structor": 7283,
      "▁>>": 7284,
      "gz": 7285,
      "ノー": 7286,
      "伝": 7287,
      "▁scheme": 7288,
      "彦": 7289,
      "▁Food": 7290,
      "▁causes": 7291,
      "押し": 7292,
      "ollywood": 7293,
      "▁walking": 7294,
      "applica": 7295,
      "ゴミ": 7296,
      "▁Police": 7297,
      "GET": 7298,
      "鈴木": 7299,
      "腰": 7300,
      "ron": 7301,
      "現": 7302,
      "▁posts": 7303,
      "タイヤ": 7304,
      "buf": 7305,
      "CS": 7306,
      "かった": 7307,
      "producer": 7308,
      "奈": 7309,
      "RO": 7310,
      "Publish": 7311,
      "速度": 7312,
      "以降": 7313,
      "▁Mike": 7314,
      "▁Week": 7315,
      "▁bought": 7316,
      "▁Cor": 7317,
      "実践": 7318,
      "▁realize": 7319,
      "べき": 7320,
      "=\\": 7321,
      "▁sport": 7322,
      "Hi": 7323,
      "NS": 7324,
      "sheet": 7325,
      "session": 7326,
      "出版": 7327,
      "word": 7328,
      "▁名前": 7329,
      "可能です": 7330,
      "ステップ": 7331,
      "チャレンジ": 7332,
      "みる": 7333,
      "仲": 7334,
      "ping": 7335,
      "の意味": 7336,
      "antastic": 7337,
      "▁yes": 7338,
      "デメリット": 7339,
      "僕": 7340,
      "yl": 7341,
      "ES": 7342,
      "反": 7343,
      "Core": 7344,
      "parse": 7345,
      "お話": 7346,
      "ご利用": 7347,
      "しているので": 7348,
      "皆様": 7349,
      "ランド": 7350,
      "ev": 7351,
      "▁android": 7352,
      "▁Har": 7353,
      "▁Bio": 7354,
      "だと思う": 7355,
      "▁Force": 7356,
      "breaking": 7357,
      "▁caught": 7358,
      "ていました": 7359,
      "▁url": 7360,
      "▁Nov": 7361,
      "セキュリティ": 7362,
      "食べて": 7363,
      "▁Young": 7364,
      "いくら": 7365,
      "だけでも": 7366,
      "scenario": 7367,
      "BL": 7368,
      "落ち": 7369,
      "調理": 7370,
      "▁subsequ": 7371,
      "の中でも": 7372,
      "薄": 7373,
      "▁attacks": 7374,
      "娘": 7375,
      "いわゆる": 7376,
      "visitors": 7377,
      "シンプルな": 7378,
      "tel": 7379,
      "▁Hotel": 7380,
      "General": 7381,
      "すら": 7382,
      "千葉": 7383,
      ";&": 7384,
      "機種": 7385,
      "ck": 7386,
      "続きを読む": 7387,
      "▁wild": 7388,
      "たくない": 7389,
      "offset": 7390,
      "DD": 7391,
      "▁arrived": 7392,
      "の口コミ": 7393,
      "有名": 7394,
      "解": 7395,
      "Database": 7396,
      "но": 7397,
      "Yet": 7398,
      "出張": 7399,
      "VR": 7400,
      "装": 7401,
      "sometime": 7402,
      "るのは": 7403,
      "RS": 7404,
      "▁beat": 7405,
      "再び": 7406,
      "shopping": 7407,
      "消費": 7408,
      "▁proof": 7409,
      "省": 7410,
      "▁acknowl": 7411,
      "packages": 7412,
      "iz": 7413,
      "ヨガ": 7414,
      "特定": 7415,
      "▁loan": 7416,
      "使い方": 7417,
      "Best": 7418,
      "赤ちゃん": 7419,
      "▁indeed": 7420,
      "巻き": 7421,
      "▁murder": 7422,
      "改めて": 7423,
      "aka": 7424,
      "ことができました": 7425,
      "▁abuse": 7426,
      "ica": 7427,
      "ブラ": 7428,
      "bringing": 7429,
      "war": 7430,
      "初回": 7431,
      "毎月": 7432,
      "▁ride": 7433,
      "▁Ni": 7434,
      "care": 7435,
      "▁Ltd": 7436,
      "▁critic": 7437,
      "▁complic": 7438,
      "アウト": 7439,
      "内で": 7440,
      "mann": 7441,
      "EX": 7442,
      "はとても": 7443,
      "売": 7444,
      "に対し": 7445,
      "des": 7446,
      "注目": 7447,
      "▁decade": 7448,
      "▁integra": 7449,
      "健": 7450,
      "を感じる": 7451,
      "▁drugs": 7452,
      "▁guests": 7453,
      "althcare": 7454,
      "▁mit": 7455,
      "エアコン": 7456,
      "і": 7457,
      "マスター": 7458,
      "atistics": 7459,
      "▁plastic": 7460,
      "▁miss": 7461,
      "mar": 7462,
      "elle": 7463,
      "AM": 7464,
      "道具": 7465,
      "あらゆる": 7466,
      "損": 7467,
      "requires": 7468,
      "生地": 7469,
      "女性の": 7470,
      "flow": 7471,
      "うまく": 7472,
      "長期": 7473,
      "▁broken": 7474,
      "断": 7475,
      "▁filed": 7476,
      "currency": 7477,
      "プール": 7478,
      "レザー": 7479,
      "threaten": 7480,
      "絶対に": 7481,
      "spec": 7482,
      "厳しい": 7483,
      "縁": 7484,
      "したいと思います": 7485,
      "委員": 7486,
      "▁debut": 7487,
      "fensive": 7488,
      "▁stores": 7489,
      "dc": 7490,
      "ud": 7491,
      "占い": 7492,
      "▁Jo": 7493,
      "▁grew": 7494,
      "台湾": 7495,
      "休み": 7496,
      "▁Jack": 7497,
      "Change": 7498,
      "と思いました": 7499,
      "sponding": 7500,
      "皆": 7501,
      "Main": 7502,
      "面接": 7503,
      "super": 7504,
      "〒": 7505,
      "智": 7506,
      "▁\"<": 7507,
      "Black": 7508,
      "が一番": 7509,
      "ります": 7510,
      "炎": 7511,
      "!!!": 7512,
      "▁struct": 7513,
      "+\\": 7514,
      "Long": 7515,
      "▁forget": 7516,
      "が悪い": 7517,
      ")}": 7518,
      "引越し": 7519,
      "九": 7520,
      "▁dinner": 7521,
      "▁URL": 7522,
      "是": 7523,
      "ep": 7524,
      "▁ancient": 7525,
      "▁selling": 7526,
      "おそらく": 7527,
      "send": 7528,
      "▁Italian": 7529,
      "られない": 7530,
      "行って": 7531,
      "Order": 7532,
      ">(": 7533,
      "氷": 7534,
      "▁val": 7535,
      "豆": 7536,
      "idx": 7537,
      "▁chapter": 7538,
      "improved": 7539,
      "▁Studies": 7540,
      "それでは": 7541,
      "竜": 7542,
      "ang": 7543,
      "ure": 7544,
      "^{-": 7545,
      "▁Miss": 7546,
      "ata": 7547,
      "▁turns": 7548,
      "即": 7549,
      "モニター": 7550,
      "盤": 7551,
      "entirely": 7552,
      "TOP": 7553,
      "そんなに": 7554,
      "最": 7555,
      "sk": 7556,
      "パフォーマンス": 7557,
      "▁trigger": 7558,
      "砂": 7559,
      "完全に": 7560,
      "のもの": 7561,
      "▁Ed": 7562,
      "来る": 7563,
      "削除": 7564,
      "概要": 7565,
      "▁Manager": 7566,
      "泊": 7567,
      "お菓子": 7568,
      "ena": 7569,
      "午前": 7570,
      "みてください": 7571,
      "▁sister": 7572,
      "ナイト": 7573,
      "▁fees": 7574,
      "logger": 7575,
      "Equal": 7576,
      "ка": 7577,
      "▁Sub": 7578,
      "問": 7579,
      "高級": 7580,
      "cf": 7581,
      "瞬間": 7582,
      "▁Prime": 7583,
      "掛け": 7584,
      "▁col": 7585,
      "▁Dan": 7586,
      "TH": 7587,
      "▁authors": 7588,
      "時間は": 7589,
      "の流れ": 7590,
      "毎回": 7591,
      "クロ": 7592,
      "乗り": 7593,
      "ないので": 7594,
      "セン": 7595,
      "コンビニ": 7596,
      "ショー": 7597,
      "コラボ": 7598,
      "冊": 7599,
      "▁entered": 7600,
      "direct": 7601,
      "tmp": 7602,
      "Michigan": 7603,
      "iversity": 7604,
      "若": 7605,
      "いただく": 7606,
      "基礎": 7607,
      "▁planet": 7608,
      "Control": 7609,
      "SIM": 7610,
      "▁farm": 7611,
      "▁Light": 7612,
      "継続": 7613,
      "枝": 7614,
      "造": 7615,
      "Public": 7616,
      "聞いて": 7617,
      "完了": 7618,
      "white": 7619,
      "▁Supreme": 7620,
      "▁“": 7621,
      "前回": 7622,
      "私たちは": 7623,
      "内に": 7624,
      "とのこと": 7625,
      "ST": 7626,
      "▁adult": 7627,
      "武器": 7628,
      "ケン": 7629,
      "ここに": 7630,
      "｀": 7631,
      "▁river": 7632,
      "ちゃ": 7633,
      "登場": 7634,
      "*)": 7635,
      "実行": 7636,
      "デート": 7637,
      "▁Plan": 7638,
      "らしく": 7639,
      "ﾝ": 7640,
      "▁diverse": 7641,
      "話題": 7642,
      "▁narrat": 7643,
      "▁encount": 7644,
      "sentence": 7645,
      "accepted": 7646,
      "Na": 7647,
      "Referenc": 7648,
      "▁Support": 7649,
      "感謝": 7650,
      "▁grant": 7651,
      "SA": 7652,
      "req": 7653,
      "IF": 7654,
      "出会い": 7655,
      "ntative": 7656,
      "シェア": 7657,
      "workshop": 7658,
      "能": 7659,
      "▁Store": 7660,
      "けれども": 7661,
      "▁branch": 7662,
      "連携": 7663,
      "▁recover": 7664,
      "畑": 7665,
      "files": 7666,
      "少ない": 7667,
      "つく": 7668,
      "胸": 7669,
      "▁ring": 7670,
      "▁plot": 7671,
      "Entry": 7672,
      "Ｌ": 7673,
      "僕の": 7674,
      "こちらも": 7675,
      "ли": 7676,
      "▁Ph": 7677,
      "device": 7678,
      "の世界": 7679,
      "cha": 7680,
      "▁colors": 7681,
      "ポケモン": 7682,
      "思考": 7683,
      "Personal": 7684,
      "change": 7685,
      "ヽ": 7686,
      "▁recruit": 7687,
      "Height": 7688,
      "▁aid": 7689,
      "▁Gu": 7690,
      "メンテナンス": 7691,
      "難": 7692,
      "▁solve": 7693,
      "ix": 7694,
      "ram": 7695,
      "▁snow": 7696,
      "科学": 7697,
      "namespac": 7698,
      "▁Iran": 7699,
      "eb": 7700,
      "受け": 7701,
      "Width": 7702,
      "お願いします": 7703,
      "ben": 7704,
      "approval": 7705,
      "過去の": 7706,
      "ったり": 7707,
      "ありがとう": 7708,
      "▁hundred": 7709,
      "Contact": 7710,
      "基": 7711,
      "sky": 7712,
      "トリ": 7713,
      "やつ": 7714,
      "▁ha": 7715,
      "quot": 7716,
      "状態で": 7717,
      "caption": 7718,
      "Ｗ": 7719,
      "▁suffici": 7720,
      "▁entre": 7721,
      "с": 7722,
      "▁Presid": 7723,
      "地元": 7724,
      "▁uint": 7725,
      "prop": 7726,
      "ジン": 7727,
      "一つ": 7728,
      "World": 7729,
      "·": 7730,
      "ていない": 7731,
      "▁drink": 7732,
      "▁stopped": 7733,
      "▁у": 7734,
      "▁worse": 7735,
      "▁debate": 7736,
      "学会": 7737,
      "規制": 7738,
      "sch": 7739,
      "ano": 7740,
      "х": 7741,
      "▁Daily": 7742,
      "law": 7743,
      "▁diagnos": 7744,
      "労働": 7745,
      "倉": 7746,
      "vestors": 7747,
      "Northern": 7748,
      "eqref": 7749,
      "でございます": 7750,
      "姿勢": 7751,
      "False": 7752,
      "を受けた": 7753,
      "ダメ": 7754,
      "▁Italy": 7755,
      "は何": 7756,
      "ギター": 7757,
      "副": 7758,
      "▁User": 7759,
      "strument": 7760,
      "▁talent": 7761,
      "Williams": 7762,
      "▁twice": 7763,
      "Java": 7764,
      "▁Lo": 7765,
      "アーティスト": 7766,
      "▁adapt": 7767,
      "団": 7768,
      "CH": 7769,
      "作って": 7770,
      "▁suit": 7771,
      "\"))": 7772,
      "▁Java": 7773,
      "featured": 7774,
      "返済": 7775,
      "Level": 7776,
      "▁charged": 7777,
      "PV": 7778,
      "軽": 7779,
      "全体": 7780,
      "思い出": 7781,
      "discount": 7782,
      "夏の": 7783,
      "chain": 7784,
      "▁beach": 7785,
      "fc": 7786,
      "▁~": 7787,
      "案件": 7788,
      "箇所": 7789,
      "なくても": 7790,
      "▁<=": 7791,
      "к": 7792,
      "速報": 7793,
      "▁planned": 7794,
      "様に": 7795,
      "Based": 7796,
      "と思いますが": 7797,
      "BE": 7798,
      "してます": 7799,
      "ゴム": 7800,
      "▁flex": 7801,
      "abstract": 7802,
      "▁Video": 7803,
      "▁faster": 7804,
      "はまだ": 7805,
      "なんだか": 7806,
      "佐藤": 7807,
      "製作": 7808,
      "dl": 7809,
      "collect": 7810,
      "air": 7811,
      "wiki": 7812,
      "Question": 7813,
      "インストール": 7814,
      "á": 7815,
      "▁Table": 7816,
      "▁funda": 7817,
      "無し": 7818,
      "▁submitt": 7819,
      "学園": 7820,
      "▁echo": 7821,
      "多く": 7822,
      "少しずつ": 7823,
      "オーダー": 7824,
      "conf": 7825,
      "install": 7826,
      "をご紹介": 7827,
      "栄": 7828,
      "fd": 7829,
      "Constant": 7830,
      "▁coopera": 7831,
      "善": 7832,
      "工": 7833,
      "申し込み": 7834,
      "しまいました": 7835,
      "▁III": 7836,
      "rem": 7837,
      "requency": 7838,
      "▁urban": 7839,
      "▁reader": 7840,
      "▁mini": 7841,
      "ロード": 7842,
      "ろう": 7843,
      "発見": 7844,
      "ortfolio": 7845,
      "影響": 7846,
      "▁joint": 7847,
      "▁motivat": 7848,
      "ぜ": 7849,
      "directed": 7850,
      "▁rooms": 7851,
      "example": 7852,
      "parallel": 7853,
      "▁helpful": 7854,
      "ery": 7855,
      "メモ": 7856,
      "stack": 7857,
      "ach": 7858,
      "みた": 7859,
      "▁sitting": 7860,
      "night": 7861,
      "ue": 7862,
      "lights": 7863,
      "報酬": 7864,
      "▁About": 7865,
      "人物": 7866,
      "▁Britain": 7867,
      "理由は": 7868,
      "やった": 7869,
      "弊社": 7870,
      "▁thread": 7871,
      "Activity": 7872,
      "俺は": 7873,
      "宝": 7874,
      "AD": 7875,
      "いよいよ": 7876,
      "込んで": 7877,
      "Customer": 7878,
      "人も": 7879,
      "▁figures": 7880,
      "vin": 7881,
      "手作り": 7882,
      "▁honor": 7883,
      "▁Ra": 7884,
      "が無い": 7885,
      "満足": 7886,
      "模様": 7887,
      "pictures": 7888,
      "有料": 7889,
      "▁desire": 7890,
      "cache": 7891,
      "タッチ": 7892,
      "笑顔": 7893,
      "generat": 7894,
      "Store": 7895,
      "看護師": 7896,
      "金融": 7897,
      "▁litera": 7898,
      "隆": 7899,
      "sqrt": 7900,
      "mod": 7901,
      "少しでも": 7902,
      "на": 7903,
      "電源": 7904,
      "▁assume": 7905,
      "ax": 7906,
      "を利用して": 7907,
      "の利用": 7908,
      "exposure": 7909,
      "アー": 7910,
      "麻": 7911,
      "ゴール": 7912,
      "スマート": 7913,
      "そこから": 7914,
      "なくなる": 7915,
      "om": 7916,
      "パー": 7917,
      "▁pp": 7918,
      "yo": 7919,
      "▁categor": 7920,
      "▁closer": 7921,
      "隊": 7922,
      "怖い": 7923,
      "NY": 7924,
      "NET": 7925,
      "▁Page": 7926,
      "辛い": 7927,
      "▁Louis": 7928,
      "opt": 7929,
      "Mountain": 7930,
      "▁Add": 7931,
      "▁therapy": 7932,
      "infty": 7933,
      "てくれる": 7934,
      "カジノ": 7935,
      "unit": 7936,
      "▁Watch": 7937,
      "タオル": 7938,
      "保育園": 7939,
      "プログラミング": 7940,
      "モンスター": 7941,
      "医": 7942,
      "fighting": 7943,
      "責任": 7944,
      "▁Oct": 7945,
      "不可": 7946,
      "▁combin": 7947,
      "▁});": 7948,
      "duration": 7949,
      "福祉": 7950,
      "深い": 7951,
      "▁coast": 7952,
      "見える": 7953,
      "際に": 7954,
      "チョコレート": 7955,
      "▁Frank": 7956,
      "ネイル": 7957,
      "Mar": 7958,
      "視": 7959,
      "items": 7960,
      "年収": 7961,
      "CC": 7962,
      "豚": 7963,
      "部品": 7964,
      "そこまで": 7965,
      "たん": 7966,
      "ane": 7967,
      "▁aim": 7968,
      "大丈夫": 7969,
      "▁signs": 7970,
      "やり": 7971,
      "▁guitar": 7972,
      "が良い": 7973,
      "atic": 7974,
      "▁scope": 7975,
      "▁owned": 7976,
      "▁Ko": 7977,
      "▁Zealand": 7978,
      "Properti": 7979,
      "周辺": 7980,
      "element": 7981,
      ")))": 7982,
      "power": 7983,
      "のほうが": 7984,
      "妊娠": 7985,
      "window": 7986,
      "access": 7987,
      "先生の": 7988,
      "禁止": 7989,
      "屋さん": 7990,
      "▁negotia": 7991,
      "ミー": 7992,
      "の内容": 7993,
      "地球": 7994,
      "離婚": 7995,
      "万人": 7996,
      "ユニット": 7997,
      "の設定": 7998,
      "ウェア": 7999,
      "tegrated": 8000,
      "の日": 8001,
      "▁county": 8002,
      "急": 8003,
      "Ex": 8004,
      "Ｋ": 8005,
      "▁repair": 8006,
      "上昇": 8007,
      "▁Hi": 8008,
      "秀": 8009,
      "屋根": 8010,
      "サイ": 8011,
      "▁Action": 8012,
      "しばらく": 8013,
      "▁compens": 8014,
      "▁Digital": 8015,
      "に行って": 8016,
      "下の": 8017,
      "attorney": 8018,
      "▁Chi": 8019,
      "ついに": 8020,
      "パート": 8021,
      "搭載": 8022,
      "がいる": 8023,
      "際": 8024,
      "▁cycle": 8025,
      "ご予約": 8026,
      "DA": 8027,
      "▁courses": 8028,
      "▁Kingdom": 8029,
      "アリ": 8030,
      "圧": 8031,
      "痛": 8032,
      "ませんでした": 8033,
      "▁Jackson": 8034,
      "EN": 8035,
      "子供の": 8036,
      "コレ": 8037,
      "Students": 8038,
      "VIP": 8039,
      "dot": 8040,
      "▁ongoing": 8041,
      "▁council": 8042,
      "千葉県": 8043,
      "工業": 8044,
      "▁matrix": 8045,
      "答え": 8046,
      "昼": 8047,
      "ック": 8048,
      "あい": 8049,
      "生徒": 8050,
      "バトル": 8051,
      "そのような": 8052,
      "▁Ab": 8053,
      "国の": 8054,
      "自身の": 8055,
      "人を": 8056,
      "香り": 8057,
      "ett": 8058,
      "disorder": 8059,
      "▁po": 8060,
      "zo": 8061,
      "ae": 8062,
      "確定": 8063,
      "通常の": 8064,
      "人材": 8065,
      "十": 8066,
      "も多く": 8067,
      "Omega": 8068,
      "ますので": 8069,
      "▁extent": 8070,
      "以外": 8071,
      "gov": 8072,
      "▁Sch": 8073,
      "gy": 8074,
      "symbol": 8075,
      "▁Po": 8076,
      "魔": 8077,
      "書いて": 8078,
      "vm": 8079,
      "▁chair": 8080,
      "ナビ": 8081,
      "ある程度": 8082,
      "struggle": 8083,
      "▁campus": 8084,
      "田中": 8085,
      "手数料": 8086,
      "Users": 8087,
      "▁Trans": 8088,
      "強く": 8089,
      "一般的な": 8090,
      "dustries": 8091,
      "▁victory": 8092,
      "SET": 8093,
      "Email": 8094,
      "▁vol": 8095,
      "ﾌ": 8096,
      "ニット": 8097,
      "▁Season": 8098,
      "初めての": 8099,
      "▁smooth": 8100,
      "日常": 8101,
      "Such": 8102,
      "KO": 8103,
      "▁operate": 8104,
      "▁※": 8105,
      "重量": 8106,
      "安く": 8107,
      "たとえば": 8108,
      "をご覧ください": 8109,
      "体重": 8110,
      "ジェ": 8111,
      "cdot": 8112,
      "eg": 8113,
      "父": 8114,
      "▁bound": 8115,
      "▁crowd": 8116,
      "いつでも": 8117,
      "車の": 8118,
      "­": 8119,
      "▁zone": 8120,
      "バイ": 8121,
      "鍵": 8122,
      "はかなり": 8123,
      "▁simulat": 8124,
      "患者": 8125,
      "測定": 8126,
      "️": 8127,
      "▁mainten": 8128,
      "▁brief": 8129,
      "mobile": 8130,
      "▁Spanish": 8131,
      "自分に": 8132,
      "Car": 8133,
      "ジャンル": 8134,
      "夫婦": 8135,
      "てしまった": 8136,
      "surprise": 8137,
      "officers": 8138,
      "▁passing": 8139,
      "共有": 8140,
      "▁regions": 8141,
      "az": 8142,
      "ran": 8143,
      "なった": 8144,
      "Material": 8145,
      "アジア": 8146,
      "▁stretch": 8147,
      "妻": 8148,
      "国家": 8149,
      "▁sides": 8150,
      "食べ物": 8151,
      "色の": 8152,
      "第二": 8153,
      "▁Su": 8154,
      "Book": 8155,
      "いっぱい": 8156,
      "早速": 8157,
      "stop": 8158,
      "会話": 8159,
      "Palestin": 8160,
      "装備": 8161,
      "段階": 8162,
      "前から": 8163,
      "られている": 8164,
      "；": 8165,
      "黄": 8166,
      "博": 8167,
      "企業の": 8168,
      "されており": 8169,
      "出る": 8170,
      "()->": 8171,
      "handle": 8172,
      "▁windows": 8173,
      "▁split": 8174,
      "▁je": 8175,
      "||": 8176,
      "interior": 8177,
      "▁airport": 8178,
      "台風": 8179,
      "▁counsel": 8180,
      "xe": 8181,
      "News": 8182,
      "▁Wood": 8183,
      "▁Over": 8184,
      "Day": 8185,
      "﻿": 8186,
      "プレ": 8187,
      "▁buying": 8188,
      "高校生": 8189,
      "独自の": 8190,
      "▁finance": 8191,
      "オブ": 8192,
      "▁OS": 8193,
      "資産": 8194,
      "新宿": 8195,
      "ジョン": 8196,
      "▁colour": 8197,
      "デバイス": 8198,
      "Learning": 8199,
      "というもの": 8200,
      "切れ": 8201,
      "graphic": 8202,
      "TR": 8203,
      "▁mixed": 8204,
      "Global": 8205,
      "バカ": 8206,
      "▁definit": 8207,
      "目の": 8208,
      "▁Prince": 8209,
      "▁exact": 8210,
      "気が": 8211,
      "が可能": 8212,
      "底": 8213,
      "av": 8214,
      "▁fa": 8215,
      "回り": 8216,
      "▁tested": 8217,
      "▁usual": 8218,
      "▁flag": 8219,
      "留": 8220,
      "▁bag": 8221,
      "optional": 8222,
      "▁busy": 8223,
      "believed": 8224,
      "お客様に": 8225,
      "fr": 8226,
      "出産": 8227,
      "Which": 8228,
      "FE": 8229,
      "$-": 8230,
      "トーク": 8231,
      "player": 8232,
      "react": 8233,
      "を持ち": 8234,
      "庭": 8235,
      "urnament": 8236,
      "debug": 8237,
      "▁hidden": 8238,
      "職場": 8239,
      "▁facing": 8240,
      "▁WA": 8241,
      "守": 8242,
      "議論": 8243,
      "がいい": 8244,
      "Ca": 8245,
      "通知": 8246,
      "ますね": 8247,
      "▁ends": 8248,
      "スーツ": 8249,
      "▁Version": 8250,
      "pc": 8251,
      "▁serves": 8252,
      "▁tips": 8253,
      "ius": 8254,
      "ナー": 8255,
      "建": 8256,
      "推進": 8257,
      "出典": 8258,
      "interact": 8259,
      "常": 8260,
      "純": 8261,
      "配": 8262,
      "アプリケーション": 8263,
      "▁league": 8264,
      "教授": 8265,
      "ari": 8266,
      "omething": 8267,
      "neighbor": 8268,
      "Author": 8269,
      "CE": 8270,
      "送信": 8271,
      "▁obligat": 8272,
      "ren": 8273,
      "ven": 8274,
      "プラ": 8275,
      "アイス": 8276,
      "作る": 8277,
      "▁imagine": 8278,
      "有名な": 8279,
      "full": 8280,
      "▁topics": 8281,
      "▁outdoor": 8282,
      "が少ない": 8283,
      "temp": 8284,
      "筋肉": 8285,
      "▁contest": 8286,
      "▁deploy": 8287,
      "お酒": 8288,
      "初の": 8289,
      "相当": 8290,
      "集団": 8291,
      "▁Korea": 8292,
      "▁Her": 8293,
      "▁define": 8294,
      "utils": 8295,
      "室内": 8296,
      "……。": 8297,
      "具": 8298,
      "via": 8299,
      "▁IP": 8300,
      "Case": 8301,
      "の中から": 8302,
      "型の": 8303,
      "地域の": 8304,
      "ゲスト": 8305,
      "▁arm": 8306,
      "fs": 8307,
      "姿": 8308,
      "氏は": 8309,
      "▁throws": 8310,
      "いれば": 8311,
      "distinct": 8312,
      "お風呂": 8313,
      "合計": 8314,
      "制御": 8315,
      "殺": 8316,
      "▁conclus": 8317,
      "▁spoke": 8318,
      "が可能です": 8319,
      "hundreds": 8320,
      "細": 8321,
      "▁Jr": 8322,
      "金利": 8323,
      "paramet": 8324,
      "キャスト": 8325,
      "tributes": 8326,
      "済み": 8327,
      "▁Enter": 8328,
      "▁illegal": 8329,
      "させた": 8330,
      "目に": 8331,
      "基本的に": 8332,
      "ソフトウェア": 8333,
      "DF": 8334,
      "▁Pacific": 8335,
      "意見": 8336,
      "回目": 8337,
      "退職": 8338,
      "SD": 8339,
      "過": 8340,
      "▁stone": 8341,
      "剣": 8342,
      "icipate": 8343,
      "bold": 8344,
      "▁Joseph": 8345,
      "san": 8346,
      "鏡": 8347,
      "お仕事": 8348,
      "分かる": 8349,
      "▁degrees": 8350,
      "被害": 8351,
      "近く": 8352,
      "shape": 8353,
      "原作": 8354,
      "▁violat": 8355,
      "▁kill": 8356,
      "▁tough": 8357,
      "早い": 8358,
      "▁moments": 8359,
      "を紹介します": 8360,
      "▁totally": 8361,
      "▁Object": 8362,
      "外国人": 8363,
      "▁Server": 8364,
      "purposes": 8365,
      "UN": 8366,
      "縦": 8367,
      "ast": 8368,
      "suitable": 8369,
      "▁cluster": 8370,
      "▁Pe": 8371,
      "軽く": 8372,
      "cur": 8373,
      "日時": 8374,
      "を使用して": 8375,
      "▁PA": 8376,
      "complain": 8377,
      "priority": 8378,
      "▁bigger": 8379,
      "▁taste": 8380,
      "平日": 8381,
      "感動": 8382,
      "▁persons": 8383,
      "▁tasks": 8384,
      "▁Model": 8385,
      "▁Back": 8386,
      "▁taught": 8387,
      "であること": 8388,
      "方法は": 8389,
      "▁segment": 8390,
      "まり": 8391,
      "を取り": 8392,
      "Body": 8393,
      "Run": 8394,
      "Equals": 8395,
      "▁mine": 8396,
      "請求": 8397,
      "職員": 8398,
      "▁spaces": 8399,
      "マップ": 8400,
      "▁exit": 8401,
      "zi": 8402,
      "▁improv": 8403,
      "防": 8404,
      "dom": 8405,
      "Original": 8406,
      "乳": 8407,
      "DX": 8408,
      "ds": 8409,
      "信頼": 8410,
      "loc": 8411,
      "発言": 8412,
      "▁Georgia": 8413,
      "concerns": 8414,
      "きて": 8415,
      "ようやく": 8416,
      "▁risks": 8417,
      "▁covers": 8418,
      "綿": 8419,
      "逃げ": 8420,
      "みたいに": 8421,
      "重要": 8422,
      "▁roles": 8423,
      "blob": 8424,
      "▁loop": 8425,
      "vert": 8426,
      "▁winner": 8427,
      "ガーデン": 8428,
      "▁Ho": 8429,
      "いきなり": 8430,
      "神経": 8431,
      "うどん": 8432,
      "国民": 8433,
      "▁compare": 8434,
      "stood": 8435,
      "▁orders": 8436,
      "stablish": 8437,
      "▁duty": 8438,
      "抜き": 8439,
      "▁acid": 8440,
      "』『": 8441,
      "Media": 8442,
      "loss": 8443,
      "volving": 8444,
      "富": 8445,
      "▁Protect": 8446,
      "▁fail": 8447,
      "▁ブラック": 8448,
      "▁ad": 8449,
      "ﾉ": 8450,
      "振り": 8451,
      "Cache": 8452,
      "失": 8453,
      "ライ": 8454,
      "選挙": 8455,
      "を超える": 8456,
      "jo": 8457,
      "の声": 8458,
      "ようになった": 8459,
      "bot": 8460,
      "転": 8461,
      "▁boat": 8462,
      "音声": 8463,
      "もん": 8464,
      "リアル": 8465,
      "▁ANY": 8466,
      "・・・・": 8467,
      "向き": 8468,
      "▁fiction": 8469,
      "フェ": 8470,
      "anywhere": 8471,
      "die": 8472,
      "ここは": 8473,
      "の使い方": 8474,
      "分野": 8475,
      "仕事を": 8476,
      "られて": 8477,
      "exp": 8478,
      "Step": 8479,
      "only": 8480,
      "金属": 8481,
      "EE": 8482,
      "お届け": 8483,
      "AL": 8484,
      "▁earned": 8485,
      "ひとつ": 8486,
      "ins": 8487,
      "▁Radio": 8488,
      "mentary": 8489,
      "出身": 8490,
      "場合がございます": 8491,
      "診療": 8492,
      "中止": 8493,
      "Target": 8494,
      "休": 8495,
      "▁Spring": 8496,
      "乃": 8497,
      "人数": 8498,
      "▁sponsor": 8499,
      "global": 8500,
      "▁feed": 8501,
      "bc": 8502,
      "GA": 8503,
      "ロゴ": 8504,
      "vol": 8505,
      "歳の": 8506,
      "時間を": 8507,
      "便利な": 8508,
      "魅力": 8509,
      "きちんと": 8510,
      "Star": 8511,
      "疑問": 8512,
      "how": 8513,
      "の大": 8514,
      "紀": 8515,
      "draw": 8516,
      "注": 8517,
      "見た": 8518,
      "should": 8519,
      "▁Vi": 8520,
      "each": 8521,
      "コスメ": 8522,
      "遊": 8523,
      "champion": 8524,
      "にあった": 8525,
      "投票": 8526,
      "リーダー": 8527,
      "SB": 8528,
      "\"/>": 8529,
      "どうして": 8530,
      "ons": 8531,
      "〔": 8532,
      "お得な": 8533,
      "形式": 8534,
      "PA": 8535,
      "▁samples": 8536,
      "グラ": 8537,
      "▁Jersey": 8538,
      "棚": 8539,
      "背景": 8540,
      "畳": 8541,
      "中学校": 8542,
      "サブ": 8543,
      "マンガ": 8544,
      "するため": 8545,
      "MR": 8546,
      "vertical": 8547,
      "▁tea": 8548,
      "н": 8549,
      "▁depth": 8550,
      "そろそろ": 8551,
      "modified": 8552,
      "В": 8553,
      "Helper": 8554,
      "Cell": 8555,
      "商品の": 8556,
      "▁concert": 8557,
      "sm": 8558,
      "▁Officer": 8559,
      "書籍": 8560,
      "ストレッチ": 8561,
      "▁sp": 8562,
      "研究所": 8563,
      "方式": 8564,
      "キッズ": 8565,
      "もらえる": 8566,
      "自ら": 8567,
      "high": 8568,
      "upcoming": 8569,
      "ｇ": 8570,
      "年以上": 8571,
      "▁reveal": 8572,
      "Session": 8573,
      "▁reduc": 8574,
      "みなさん": 8575,
      "▁ease": 8576,
      "▁surgery": 8577,
      "▁compet": 8578,
      "iter": 8579,
      "格安": 8580,
      "精神": 8581,
      "頃": 8582,
      "▁arts": 8583,
      "▁Roman": 8584,
      "現地": 8585,
      "可能性があります": 8586,
      "Show": 8587,
      "OP": 8588,
      "л": 8589,
      "合う": 8590,
      "みると": 8591,
      "che": 8592,
      "metadata": 8593,
      "▁noise": 8594,
      "▁console": 8595,
      "▁defini": 8596,
      "▁alt": 8597,
      "次は": 8598,
      "そうだ": 8599,
      "職業": 8600,
      "天気": 8601,
      "シルバー": 8602,
      "cloud": 8603,
      "▁trading": 8604,
      "ines": 8605,
      "Support": 8606,
      "▁entity": 8607,
      "みんなで": 8608,
      "電車": 8609,
      "note": 8610,
      "symptoms": 8611,
      "Retriev": 8612,
      "トレンド": 8613,
      "▁fat": 8614,
      "Num": 8615,
      "浦": 8616,
      "▁battery": 8617,
      "法律": 8618,
      "LY": 8619,
      "行政": 8620,
      "Work": 8621,
      "▁divers": 8622,
      "るので": 8623,
      "ヘア": 8624,
      "がとても": 8625,
      "▁banks": 8626,
      "してた": 8627,
      "▁Number": 8628,
      "▁newspap": 8629,
      "▁agents": 8630,
      "▁Story": 8631,
      "現状": 8632,
      "場面": 8633,
      "ないように": 8634,
      "vehicles": 8635,
      "終わり": 8636,
      "パートナー": 8637,
      "vis": 8638,
      "向けの": 8639,
      "▁Create": 8640,
      "require": 8641,
      "仏": 8642,
      "EL": 8643,
      "由": 8644,
      "者が": 8645,
      "replace": 8646,
      "連続": 8647,
      "遠": 8648,
      "Having": 8649,
      "Port": 8650,
      "くれた": 8651,
      "▁supple": 8652,
      "▁incorpo": 8653,
      "occurred": 8654,
      "▁unable": 8655,
      "してきました": 8656,
      "手法": 8657,
      "auth": 8658,
      "Analysis": 8659,
      "▁Now": 8660,
      "受": 8661,
      "ionally": 8662,
      "日程": 8663,
      "ためには": 8664,
      "ロボット": 8665,
      "ごと": 8666,
      "cp": 8667,
      "landscap": 8668,
      "▁submit": 8669,
      "▁drama": 8670,
      "▁actor": 8671,
      "▁featur": 8672,
      "▁opera": 8673,
      "演出": 8674,
      "来て": 8675,
      "ppointed": 8676,
      "face": 8677,
      "扱い": 8678,
      "▁goods": 8679,
      "▁boys": 8680,
      "停止": 8681,
      "批判": 8682,
      "爆": 8683,
      "ありました": 8684,
      "攻略": 8685,
      "始めた": 8686,
      "▁www": 8687,
      "かん": 8688,
      "▁worst": 8689,
      "安定": 8690,
      "Spec": 8691,
      "フルーツ": 8692,
      "共": 8693,
      "closed": 8694,
      "玄関": 8695,
      "su": 8696,
      "共同": 8697,
      "を見ると": 8698,
      "報": 8699,
      "ij": 8700,
      "Solution": 8701,
      "口座": 8702,
      "▁{}": 8703,
      "具体的な": 8704,
      "〕": 8705,
      "ｽ": 8706,
      "ception": 8707,
      "▁buffer": 8708,
      "▁crew": 8709,
      "▁examin": 8710,
      "渋谷": 8711,
      "用途": 8712,
      "恵": 8713,
      "hash": 8714,
      "з": 8715,
      "success": 8716,
      "にならない": 8717,
      "▁hyper": 8718,
      "CF": 8719,
      "rating": 8720,
      "マーケット": 8721,
      "Did": 8722,
      "手段": 8723,
      "災害": 8724,
      "youtube": 8725,
      "の結果": 8726,
      "ドン": 8727,
      "持って": 8728,
      "一方で": 8729,
      "fill": 8730,
      "える": 8731,
      "▁Ta": 8732,
      "stock": 8733,
      "検証": 8734,
      "▁Se": 8735,
      "クリ": 8736,
      "勝手に": 8737,
      "hreshold": 8738,
      "bathroom": 8739,
      "▁bodies": 8740,
      "{}": 8741,
      "▁telling": 8742,
      "お願いいたします": 8743,
      "交渉": 8744,
      "▁Our": 8745,
      "▁choices": 8746,
      "前後": 8747,
      "最新の": 8748,
      "ヴィ": 8749,
      "WordPres": 8750,
      "Great": 8751,
      "`,": 8752,
      "▁inspira": 8753,
      "▁promise": 8754,
      "続く": 8755,
      "と言われる": 8756,
      "カル": 8757,
      "▁succeed": 8758,
      "▁paying": 8759,
      "shi": 8760,
      "Its": 8761,
      "ao": 8762,
      "保管": 8763,
      "できれば": 8764,
      "じゃん": 8765,
      "クリーニング": 8766,
      "sys": 8767,
      "indicate": 8768,
      "済": 8769,
      "▁Queen": 8770,
      "Offset": 8771,
      "コーデ": 8772,
      "▁west": 8773,
      "▁Ohio": 8774,
      "引っ越し": 8775,
      "うちの": 8776,
      "交流": 8777,
      "小学生": 8778,
      "お茶": 8779,
      "ET": 8780,
      "ができます": 8781,
      "▁founded": 8782,
      "我": 8783,
      "Game": 8784,
      "宗": 8785,
      "reliable": 8786,
      "リビング": 8787,
      "eptember": 8788,
      "しい": 8789,
      "▁align": 8790,
      "tech": 8791,
      "▁closely": 8792,
      "ランク": 8793,
      "味わい": 8794,
      "▁houses": 8795,
      "▁Edition": 8796,
      "弘": 8797,
      "舞": 8798,
      "▁grown": 8799,
      "がん": 8800,
      "inline": 8801,
      "▁unknown": 8802,
      "ロシア": 8803,
      "挑戦": 8804,
      "Params": 8805,
      "▁stands": 8806,
      "ミルク": 8807,
      "がありますが": 8808,
      "task": 8809,
      "人間の": 8810,
      "entities": 8811,
      "結婚式": 8812,
      "を持っている": 8813,
      "学び": 8814,
      "シール": 8815,
      "当時の": 8816,
      "gan": 8817,
      "丈": 8818,
      "コンサート": 8819,
      "月号": 8820,
      "緊急": 8821,
      "▁num": 8822,
      "に入る": 8823,
      "▁guest": 8824,
      "ä": 8825,
      "▁primari": 8826,
      "calendar": 8827,
      "ward": 8828,
      "新たに": 8829,
      "クラ": 8830,
      "TA": 8831,
      "▁YouTube": 8832,
      "▁worry": 8833,
      "結": 8834,
      "みたいです": 8835,
      "▁Mi": 8836,
      "見た目": 8837,
      "働き": 8838,
      "Ｎ": 8839,
      "tra": 8840,
      "についての": 8841,
      "FA": 8842,
      "▁setup": 8843,
      "事が": 8844,
      "▁brands": 8845,
      "▁Civil": 8846,
      "▁Order": 8847,
      "▁Cross": 8848,
      "シティ": 8849,
      "Internal": 8850,
      "罪": 8851,
      "Async": 8852,
      "ショート": 8853,
      "▁nominat": 8854,
      "▁cap": 8855,
      "iPad": 8856,
      "mat": 8857,
      "▁willing": 8858,
      "れない": 8859,
      "ようになります": 8860,
      "相手に": 8861,
      "奴": 8862,
      "EMAIL": 8863,
      "最近の": 8864,
      "」　": 8865,
      "銀座": 8866,
      "菌": 8867,
      "チェーン": 8868,
      "興味": 8869,
      "▁mouth": 8870,
      "全員": 8871,
      "スケジュール": 8872,
      "側の": 8873,
      "多分": 8874,
      "と言われています": 8875,
      "体の": 8876,
      "Join": 8877,
      "▁fruit": 8878,
      "▁privacy": 8879,
      "▁AI": 8880,
      "ERROR": 8881,
      "一人で": 8882,
      "▁liquid": 8883,
      "▁missed": 8884,
      "▁pour": 8885,
      "expect": 8886,
      "▁Ke": 8887,
      "町の": 8888,
      "Ha": 8889,
      "BOX": 8890,
      "をもって": 8891,
      "▁async": 8892,
      "止め": 8893,
      "老": 8894,
      "▁spec": 8895,
      "しません": 8896,
      "▁linked": 8897,
      "certific": 8898,
      "▁Theatre": 8899,
      "一気に": 8900,
      "▁cu": 8901,
      "チャン": 8902,
      "弁": 8903,
      "disabled": 8904,
      "アップデート": 8905,
      "婚活": 8906,
      "落": 8907,
      "出来": 8908,
      "petition": 8909,
      "身長": 8910,
      "▁Ann": 8911,
      "▁NY": 8912,
      "▁token": 8913,
      "してくれます": 8914,
      "エントリー": 8915,
      "▁inner": 8916,
      "全体の": 8917,
      "コントロール": 8918,
      "foreach": 8919,
      "会長": 8920,
      "▁answers": 8921,
      "▁awarded": 8922,
      "収録": 8923,
      "比較的": 8924,
      "意外と": 8925,
      "一応": 8926,
      "助": 8927,
      "foo": 8928,
      "トラ": 8929,
      "achieved": 8930,
      "▁acting": 8931,
      "ami": 8932,
      "inst": 8933,
      "▁outcome": 8934,
      "onavirus": 8935,
      "乗": 8936,
      "▁Henry": 8937,
      "適切な": 8938,
      "▁perman": 8939,
      "心の": 8940,
      "プリ": 8941,
      "▁capable": 8942,
      "▁latter": 8943,
      "pur": 8944,
      "duction": 8945,
      "ware": 8946,
      "▁sugar": 8947,
      "私たちの": 8948,
      "sort": 8949,
      "usr": 8950,
      "▁facts": 8951,
      "フラワー": 8952,
      "ju": 8953,
      "real": 8954,
      "ほどの": 8955,
      "嫌": 8956,
      "vs": 8957,
      "風景": 8958,
      "を考える": 8959,
      "Return": 8960,
      "整理": 8961,
      "自信": 8962,
      "validate": 8963,
      "lie": 8964,
      "危険": 8965,
      "っています": 8966,
      "▁talks": 8967,
      "留学": 8968,
      "高速": 8969,
      "mosphere": 8970,
      "プロフィール": 8971,
      "▁徒歩": 8972,
      "祭り": 8973,
      "about": 8974,
      "▁stored": 8975,
      "の様子": 8976,
      "酸": 8977,
      "▁grade": 8978,
      "ジム": 8979,
      "xpertise": 8980,
      "▁parking": 8981,
      "≪": 8982,
      "calculat": 8983,
      "▁Irish": 8984,
      "始め": 8985,
      "アドバイス": 8986,
      "ちょうど": 8987,
      "の変化": 8988,
      "DL": 8989,
      "アナ": 8990,
      "キン": 8991,
      "▁claimed": 8992,
      "pop": 8993,
      "▁teach": 8994,
      "出して": 8995,
      "宿泊": 8996,
      "▁literal": 8997,
      "ワイ": 8998,
      "駅から": 8999,
      "hardware": 9000,
      "Dir": 9001,
      "math": 9002,
      "▁widely": 9003,
      "▁Main": 9004,
      "友人": 9005,
      "ara": 9006,
      "容量": 9007,
      "__(": 9008,
      "にとっては": 9009,
      "Vector": 9010,
      "▁aspect": 9011,
      "develop": 9012,
      "込んだ": 9013,
      "雇用": 9014,
      "取材": 9015,
      "score": 9016,
      "甲": 9017,
      "してみてください": 9018,
      "guidance": 9019,
      "言い": 9020,
      "記載": 9021,
      "缶": 9022,
      "をし": 9023,
      "見学": 9024,
      "方も": 9025,
      "take": 9026,
      "▁Applica": 9027,
      "乱": 9028,
      "事項": 9029,
      "Full": 9030,
      "fo": 9031,
      "▁mainly": 9032,
      "カウンター": 9033,
      "emission": 9034,
      "models": 9035,
      "small": 9036,
      "cmd": 9037,
      "Video": 9038,
      "ネットで": 9039,
      "Product": 9040,
      "に応じて": 9041,
      "平和": 9042,
      "立て": 9043,
      "洗濯": 9044,
      "▁vast": 9045,
      "やすく": 9046,
      "▁Form": 9047,
      "rb": 9048,
      "イー": 9049,
      "Univers": 9050,
      "insert": 9051,
      "HC": 9052,
      "haviour": 9053,
      "送": 9054,
      "ほうが": 9055,
      "▁Who": 9056,
      "給与": 9057,
      "アレンジ": 9058,
      "▁delete": 9059,
      "aircraft": 9060,
      "▁virus": 9061,
      "lg": 9062,
      "bus": 9063,
      "家電": 9064,
      "▁Studio": 9065,
      "ちゃんの": 9066,
      "広い": 9067,
      "▁acts": 9068,
      "レア": 9069,
      "equality": 9070,
      "の情報": 9071,
      "___": 9072,
      "嘘": 9073,
      "若い": 9074,
      "ich": 9075,
      "LO": 9076,
      "粒": 9077,
      "読む": 9078,
      "になってしまう": 9079,
      "散歩": 9080,
      "Range": 9081,
      "SO": 9082,
      "▁(\\": 9083,
      "▁tech": 9084,
      "Unfortun": 9085,
      "▁paint": 9086,
      "いるので": 9087,
      "オレンジ": 9088,
      "▁zu": 9089,
      "凄い": 9090,
      "年代": 9091,
      "ring": 9092,
      "longside": 9093,
      "▁vaccine": 9094,
      "ファミリー": 9095,
      "CG": 9096,
      "BC": 9097,
      "▁victims": 9098,
      "▁soul": 9099,
      "▁sat": 9100,
      "の仕事": 9101,
      "せずに": 9102,
      "rates": 9103,
      "か月": 9104,
      "TS": 9105,
      "▁diet": 9106,
      "Victoria": 9107,
      "High": 9108,
      "▁stake": 9109,
      "▁roll": 9110,
      "▁Financi": 9111,
      "グレー": 9112,
      "dist": 9113,
      "▁largely": 9114,
      "support": 9115,
      "arr": 9116,
      "しないと": 9117,
      "出品": 9118,
      "に行った": 9119,
      "刺激": 9120,
      "いません": 9121,
      "▁severe": 9122,
      "Ministry": 9123,
      "]:": 9124,
      "▁pan": 9125,
      "うちに": 9126,
      "たちが": 9127,
      "営業時間": 9128,
      "票": 9129,
      "オール": 9130,
      "ログイン": 9131,
      "▁Little": 9132,
      "▁Publish": 9133,
      "個人的には": 9134,
      "出来ない": 9135,
      "補助": 9136,
      "MD": 9137,
      "可能性": 9138,
      "▁def": 9139,
      "的には": 9140,
      "▁eating": 9141,
      "▁©": 9142,
      "受講": 9143,
      "ens": 9144,
      "MAN": 9145,
      "▁plane": 9146,
      "コー": 9147,
      "たまに": 9148,
      "張り": 9149,
      "partners": 9150,
      "Total": 9151,
      "なくなった": 9152,
      "`)": 9153,
      "ria": 9154,
      "のことを": 9155,
      "回数": 9156,
      "ちゃう": 9157,
      "の種類": 9158,
      "Tree": 9159,
      "▁Systems": 9160,
      "이": 9161,
      "作用": 9162,
      "の魅力": 9163,
      "▁ratio": 9164,
      "DM": 9165,
      "日まで": 9166,
      "の上に": 9167,
      "dangerou": 9168,
      "需要": 9169,
      "article": 9170,
      "▁Dis": 9171,
      "ミン": 9172,
      "負け": 9173,
      "▁symbol": 9174,
      "CT": 9175,
      "沼": 9176,
      "ていて": 9177,
      "sign": 9178,
      "支払い": 9179,
      "いても": 9180,
      "END": 9181,
      "ski": 9182,
      "今後も": 9183,
      "▁granted": 9184,
      "GS": 9185,
      "▁composi": 9186,
      "単": 9187,
      "事は": 9188,
      "▁Donald": 9189,
      "本日は": 9190,
      "にした": 9191,
      "そうで": 9192,
      "かけて": 9193,
      "発信": 9194,
      "美術館": 9195,
      "先輩": 9196,
      "uc": 9197,
      "ハン": 9198,
      "MO": 9199,
      "▁args": 9200,
      "▁chat": 9201,
      "プライベート": 9202,
      "▁earn": 9203,
      "▁sum": 9204,
      "▁Aug": 9205,
      "ローズ": 9206,
      "▁lunch": 9207,
      "▁Spain": 9208,
      "making": 9209,
      "▁adds": 9210,
      "born": 9211,
      "▁Cu": 9212,
      "送料": 9213,
      "天井": 9214,
      "Record": 9215,
      "ハート": 9216,
      "スキー": 9217,
      "イオン": 9218,
      "Ma": 9219,
      "源": 9220,
      "棒": 9221,
      "▁Port": 9222,
      "when": 9223,
      "翻訳": 9224,
      "党": 9225,
      "私たち": 9226,
      "つい": 9227,
      "してしまった": 9228,
      "もあるので": 9229,
      "勝ち": 9230,
      "David": 9231,
      "長さ": 9232,
      "▁Disney": 9233,
      "xc": 9234,
      "SC": 9235,
      "考え方": 9236,
      "ット": 9237,
      "希": 9238,
      "同時に": 9239,
      "month": 9240,
      "LP": 9241,
      "TEST": 9242,
      "接": 9243,
      "▁drivers": 9244,
      "▁fly": 9245,
      "返信": 9246,
      "針": 9247,
      "中村": 9248,
      "▁Ne": 9249,
      "サラダ": 9250,
      "ban": 9251,
      "キング": 9252,
      "ゆう": 9253,
      "ならではの": 9254,
      "ブック": 9255,
      "member": 9256,
      "▁boost": 9257,
      "そういった": 9258,
      "▁arms": 9259,
      "‐": 9260,
      "続けて": 9261,
      "lat": 9262,
      "▁saved": 9263,
      "▁warning": 9264,
      "出発": 9265,
      "▁fabric": 9266,
      "現金": 9267,
      "Watch": 9268,
      "impl": 9269,
      "▁apps": 9270,
      "front": 9271,
      "住": 9272,
      "NA": 9273,
      "副業": 9274,
      "学部": 9275,
      "関係者": 9276,
      "render": 9277,
      "▁turning": 9278,
      "profile": 9279,
      "というのも": 9280,
      "▁strange": 9281,
      "▁grid": 9282,
      "紅": 9283,
      "融資": 9284,
      "買う": 9285,
      "quad": 9286,
      "▁awards": 9287,
      "︎": 9288,
      "と言えば": 9289,
      "bytes": 9290,
      "はある": 9291,
      "▁raw": 9292,
      "Columbia": 9293,
      "ナチュラル": 9294,
      "桃": 9295,
      "DO": 9296,
      "▁Te": 9297,
      "走り": 9298,
      "▁excess": 9299,
      "中学": 9300,
      "props": 9301,
      "特別な": 9302,
      "末": 9303,
      "IS": 9304,
      "BS": 9305,
      "商品を": 9306,
      "Comments": 9307,
      "延長": 9308,
      "尚": 9309,
      "エコ": 9310,
      "Pi": 9311,
      "▁semi": 9312,
      "^)／": 9313,
      "▁drawing": 9314,
      "交通": 9315,
      "Constitu": 9316,
      "楽しめる": 9317,
      "act": 9318,
      "aa": 9319,
      "Mark": 9320,
      "AR": 9321,
      "せん": 9322,
      "本社": 9323,
      "に入って": 9324,
      "Left": 9325,
      "Pa": 9326,
      "▁Max": 9327,
      "登": 9328,
      "ごはん": 9329,
      "カスタム": 9330,
      "family": 9331,
      "▁Steve": 9332,
      "▁roof": 9333,
      "レディース": 9334,
      "▁precise": 9335,
      "居酒屋": 9336,
      "とし": 9337,
      "ormation": 9338,
      "RA": 9339,
      "外部": 9340,
      "高齢者": 9341,
      "わからない": 9342,
      "▁Matt": 9343,
      "さんも": 9344,
      "間違い": 9345,
      "山田": 9346,
      "軽い": 9347,
      "▁evolu": 9348,
      "意": 9349,
      "達成": 9350,
      "作った": 9351,
      "▁dealing": 9352,
      "▁Coast": 9353,
      "▁delight": 9354,
      "▁younger": 9355,
      "▁poss": 9356,
      "▁Rose": 9357,
      "豊富な": 9358,
      "iversary": 9359,
      "Card": 9360,
      "▁Room": 9361,
      "出荷": 9362,
      "▁salt": 9363,
      "ロール": 9364,
      "▁union": 9365,
      "かい": 9366,
      "破": 9367,
      "ale": 9368,
      "ero": 9369,
      "▁cutting": 9370,
      "▁Type": 9371,
      "▁draft": 9372,
      "Ｒ": 9373,
      "▁acceler": 9374,
      "fection": 9375,
      "▁circuit": 9376,
      "するか": 9377,
      "▁Trust": 9378,
      "メン": 9379,
      "▁decorat": 9380,
      "ю": 9381,
      "要因": 9382,
      "Abstract": 9383,
      "▁depress": 9384,
      "があると": 9385,
      "sel": 9386,
      "▁Member": 9387,
      "Sometime": 9388,
      "幼稚園": 9389,
      "Menu": 9390,
      "▁elected": 9391,
      "ct": 9392,
      "カテゴリ": 9393,
      "革": 9394,
      "ade": 9395,
      "されていない": 9396,
      "裕": 9397,
      "が違う": 9398,
      "particle": 9399,
      "警察": 9400,
      "cho": 9401,
      "異常": 9402,
      "円で": 9403,
      "▁Feb": 9404,
      "attended": 9405,
      "▁Min": 9406,
      "opposite": 9407,
      "▁ordered": 9408,
      "出場": 9409,
      "▁walls": 9410,
      "冷": 9411,
      "________": 9412,
      "▁RE": 9413,
      "ensitive": 9414,
      "NN": 9415,
      "商": 9416,
      "▁Way": 9417,
      "払い": 9418,
      "(^": 9419,
      "おもちゃ": 9420,
      "することができる": 9421,
      "▽": 9422,
      "'))": 9423,
      "ことがある": 9424,
      "NEW": 9425,
      "▁Toronto": 9426,
      "マイナス": 9427,
      "雑貨": 9428,
      "Operat": 9429,
      "歴": 9430,
      "magnetic": 9431,
      "dis": 9432,
      "Perhaps": 9433,
      "▁Capital": 9434,
      "pipeline": 9435,
      "}}\\": 9436,
      "④": 9437,
      "通勤": 9438,
      "Express": 9439,
      "Construc": 9440,
      "インド": 9441,
      "衣": 9442,
      "くらいの": 9443,
      "手当": 9444,
      "sylvania": 9445,
      "飲食店": 9446,
      "グラス": 9447,
      "▁awesome": 9448,
      "Colorado": 9449,
      "＼": 9450,
      "手順": 9451,
      "й": 9452,
      "Scotland": 9453,
      "伊": 9454,
      "uff": 9455,
      "▁dans": 9456,
      "喜": 9457,
      "xa": 9458,
      "▁relief": 9459,
      "etc": 9460,
      "▁Asian": 9461,
      "キャップ": 9462,
      "今度は": 9463,
      "▁Taylor": 9464,
      "JSON": 9465,
      "▁matches": 9466,
      "▁studied": 9467,
      "![": 9468,
      "▁View": 9469,
      "Does": 9470,
      "ストア": 9471,
      "▁east": 9472,
      "??": 9473,
      "ディズニー": 9474,
      "栽培": 9475,
      "▁depends": 9476,
      ";</": 9477,
      "ld": 9478,
      "▁Auto": 9479,
      "当たり": 9480,
      "oc": 9481,
      "ы": 9482,
      "雑": 9483,
      "▁wheel": 9484,
      "をしっかり": 9485,
      "bound": 9486,
      "cu": 9487,
      "Logger": 9488,
      "創業": 9489,
      "スカート": 9490,
      "働く": 9491,
      "▁NO": 9492,
      "東北": 9493,
      "▁dropped": 9494,
      "kar": 9495,
      "▁Santa": 9496,
      "▁trend": 9497,
      "lighting": 9498,
      "ディスプレイ": 9499,
      "子どもの": 9500,
      "▁Fair": 9501,
      "ｯ": 9502,
      "LAN": 9503,
      "lim": 9504,
      "▁prob": 9505,
      "周": 9506,
      "ж": 9507,
      "▁retire": 9508,
      "トリートメント": 9509,
      "UK": 9510,
      "ette": 9511,
      "廃": 9512,
      "EF": 9513,
      "明治": 9514,
      "▁tickets": 9515,
      "バル": 9516,
      "▁Bob": 9517,
      "SIZE": 9518,
      "▁twenty": 9519,
      "間に": 9520,
      "ブラウン": 9521,
      "▁pure": 9522,
      "うち": 9523,
      "was": 9524,
      "年から": 9525,
      "CP": 9526,
      "農": 9527,
      "まったく": 9528,
      "明らかに": 9529,
      "疾患": 9530,
      "▁horse": 9531,
      "ノン": 9532,
      "compress": 9533,
      "許可": 9534,
      "Life": 9535,
      "Love": 9536,
      "ともに": 9537,
      "SR": 9538,
      "replaced": 9539,
      "寒": 9540,
      "だったり": 9541,
      "SF": 9542,
      "バター": 9543,
      "温": 9544,
      "Str": 9545,
      "Figure": 9546,
      "を出す": 9547,
      "wi": 9548,
      "のかもしれません": 9549,
      "LOG": 9550,
      "Player": 9551,
      "賃貸": 9552,
      "BD": 9553,
      "▁trained": 9554,
      "examples": 9555,
      "dimens": 9556,
      "イベルメクチン": 9557,
      "高橋": 9558,
      "予測": 9559,
      "▁vital": 9560,
      "向": 9561,
      "Device": 9562,
      "birthday": 9563,
      "▁knowing": 9564,
      "図書館": 9565,
      "▁Perform": 9566,
      "誰も": 9567,
      "▁Andrew": 9568,
      "Win": 9569,
      "人口": 9570,
      "known": 9571,
      "のまま": 9572,
      "▁ticket": 9573,
      "コミュニティ": 9574,
      "さすがに": 9575,
      "modules": 9576,
      "▁kinds": 9577,
      "▁streets": 9578,
      "の間": 9579,
      "ブラシ": 9580,
      "進化": 9581,
      "作家": 9582,
      "Char": 9583,
      "上記の": 9584,
      "チン": 9585,
      "Learn": 9586,
      "わけで": 9587,
      "MI": 9588,
      "▁Brazil": 9589,
      "講演": 9590,
      "アメリカの": 9591,
      "van": 9592,
      "Utils": 9593,
      "プレート": 9594,
      "ntatives": 9595,
      "まい": 9596,
      "勝利": 9597,
      "売上": 9598,
      "SL": 9599,
      "ハード": 9600,
      "ラック": 9601,
      "▁sa": 9602,
      "アルバイト": 9603,
      "▁letters": 9604,
      "でもある": 9605,
      "核": 9606,
      "▁Blog": 9607,
      "吉田": 9608,
      "fit": 9609,
      "諸": 9610,
      "トレード": 9611,
      "▁weapons": 9612,
      "eristics": 9613,
      "▁reform": 9614,
      "▁Article": 9615,
      "video": 9616,
      "▁essay": 9617,
      "▁formal": 9618,
      "▁taxes": 9619,
      "ﾊ": 9620,
      "ライター": 9621,
      "フィールド": 9622,
      "▁vector": 9623,
      "属性": 9624,
      "criteria": 9625,
      "とその": 9626,
      "カウンセリング": 9627,
      "▁Kong": 9628,
      "}[": 9629,
      "▁ban": 9630,
      "▁prosecu": 9631,
      "Complete": 9632,
      "▁immigra": 9633,
      "不要": 9634,
      "読": 9635,
      "精": 9636,
      "方針": 9637,
      "時代の": 9638,
      "subscrip": 9639,
      "ええ": 9640,
      "フォト": 9641,
      "zen": 9642,
      "▁losing": 9643,
      "冷凍": 9644,
      "がなく": 9645,
      "channel": 9646,
      "の記事": 9647,
      "Training": 9648,
      "▁deals": 9649,
      "▁Leader": 9650,
      "AB": 9651,
      "dramatic": 9652,
      "なります": 9653,
      "ong": 9654,
      "supplier": 9655,
      "パパ": 9656,
      "channels": 9657,
      "のご案内": 9658,
      "▁transf": 9659,
      "シンプル": 9660,
      "cos": 9661,
      "electron": 9662,
      "Ｅ": 9663,
      "デザイナー": 9664,
      "めっちゃ": 9665,
      "▁till": 9666,
      "sc": 9667,
      "ks": 9668,
      "者は": 9669,
      "自由に": 9670,
      "～」": 9671,
      "オート": 9672,
      "サイン": 9673,
      "▁physic": 9674,
      "{{": 9675,
      "教材": 9676,
      "しまい": 9677,
      "PL": 9678,
      "ココ": 9679,
      "har": 9680,
      "たちの": 9681,
      "忙しい": 9682,
      "Types": 9683,
      "綺麗な": 9684,
      "写": 9685,
      "▁Cloud": 9686,
      "▁ma": 9687,
      "PT": 9688,
      "才": 9689,
      "Live": 9690,
      "attached": 9691,
      "日本で": 9692,
      "▁Change": 9693,
      "sample": 9694,
      "されること": 9695,
      "▁creates": 9696,
      "現象": 9697,
      "▁monthly": 9698,
      "▁Bridge": 9699,
      "の一部": 9700,
      "パリ": 9701,
      "▁density": 9702,
      "到着": 9703,
      "mask": 9704,
      "icate": 9705,
      "}$,": 9706,
      "突然": 9707,
      "actions": 9708,
      "▁Jim": 9709,
      "なって": 9710,
      "からね": 9711,
      "▁engaged": 9712,
      "定番": 9713,
      "▁escape": 9714,
      "help": 9715,
      "イギリス": 9716,
      "▁truck": 9717,
      "いただきます": 9718,
      "edu": 9719,
      "ei": 9720,
      "テープ": 9721,
      "▁designs": 9722,
      "魂": 9723,
      "'])": 9724,
      "半分": 9725,
      "セッション": 9726,
      "ties": 9727,
      "▁qui": 9728,
      "ウイルス": 9729,
      "▁Math": 9730,
      "▁picked": 9731,
      "▁Author": 9732,
      "マシン": 9733,
      "ハンド": 9734,
      "mit": 9735,
      "置き": 9736,
      "С": 9737,
      "▁poly": 9738,
      "獲得": 9739,
      "▁offset": 9740,
      "clusion": 9741,
      "Child": 9742,
      "▁thick": 9743,
      "▁compris": 9744,
      "▁rural": 9745,
      "HTML": 9746,
      "Min": 9747,
      "修": 9748,
      "盛": 9749,
      "Magazine": 9750,
      "プレー": 9751,
      "氏の": 9752,
      "鹿": 9753,
[...]
